{
  "version": "1.0",
  "truncation": null,
  "padding": null,
  "added_tokens": [
    {
      "id": 0,
      "content": "<unk>",
      "single_word": false,
      "lstrip": false,
      "rstrip": false,
      "normalized": false,
      "special": true
    },
    {
      "id": 1,
      "content": "<pad>",
      "single_word": false,
      "lstrip": false,
      "rstrip": false,
      "normalized": false,
      "special": true
    },
    {
      "id": 2,
      "content": "<bos>",
      "single_word": false,
      "lstrip": false,
      "rstrip": false,
      "normalized": false,
      "special": true
    },
    {
      "id": 3,
      "content": "<eos>",
      "single_word": false,
      "lstrip": false,
      "rstrip": false,
      "normalized": false,
      "special": true
    }
  ],
  "normalizer": null,
  "pre_tokenizer": {
    "type": "Whitespace"
  },
  "post_processor": null,
  "decoder": null,
  "model": {
    "type": "BPE",
    "dropout": null,
    "unk_token": "<unk>",
    "continuing_subword_prefix": null,
    "end_of_word_suffix": null,
    "fuse_unk": false,
    "byte_fallback": false,
    "ignore_merges": false,
    "vocab": {
      "<unk>": 0,
      "<pad>": 1,
      "<bos>": 2,
      "<eos>": 3,
      "!": 4,
      "\"": 5,
      "#": 6,
      "$": 7,
      "%": 8,
      "&": 9,
      "'": 10,
      "(": 11,
      ")": 12,
      "*": 13,
      "+": 14,
      ",": 15,
      "-": 16,
      ".": 17,
      "/": 18,
      "0": 19,
      "1": 20,
      "2": 21,
      "3": 22,
      "4": 23,
      "5": 24,
      "6": 25,
      "7": 26,
      "8": 27,
      "9": 28,
      ":": 29,
      ";": 30,
      "<": 31,
      "=": 32,
      ">": 33,
      "?": 34,
      "@": 35,
      "A": 36,
      "B": 37,
      "C": 38,
      "D": 39,
      "E": 40,
      "F": 41,
      "G": 42,
      "H": 43,
      "I": 44,
      "J": 45,
      "K": 46,
      "L": 47,
      "M": 48,
      "N": 49,
      "O": 50,
      "P": 51,
      "Q": 52,
      "R": 53,
      "S": 54,
      "T": 55,
      "U": 56,
      "V": 57,
      "W": 58,
      "X": 59,
      "Y": 60,
      "Z": 61,
      "[": 62,
      "\\": 63,
      "]": 64,
      "^": 65,
      "_": 66,
      "`": 67,
      "a": 68,
      "b": 69,
      "c": 70,
      "d": 71,
      "e": 72,
      "f": 73,
      "g": 74,
      "h": 75,
      "i": 76,
      "j": 77,
      "k": 78,
      "l": 79,
      "m": 80,
      "n": 81,
      "o": 82,
      "p": 83,
      "q": 84,
      "r": 85,
      "s": 86,
      "t": 87,
      "u": 88,
      "v": 89,
      "w": 90,
      "x": 91,
      "y": 92,
      "z": 93,
      "{": 94,
      "|": 95,
      "}": 96,
      "~": 97,
      "¡": 98,
      "¢": 99,
      "£": 100,
      "¤": 101,
      "¥": 102,
      "¦": 103,
      "§": 104,
      "¨": 105,
      "©": 106,
      "ª": 107,
      "«": 108,
      "¬": 109,
      "­": 110,
      "®": 111,
      "¯": 112,
      "°": 113,
      "±": 114,
      "²": 115,
      "³": 116,
      "´": 117,
      "µ": 118,
      "¶": 119,
      "·": 120,
      "¸": 121,
      "¹": 122,
      "º": 123,
      "»": 124,
      "¼": 125,
      "½": 126,
      "¾": 127,
      "¿": 128,
      "À": 129,
      "Á": 130,
      "Â": 131,
      "Ã": 132,
      "Ä": 133,
      "Å": 134,
      "Æ": 135,
      "Ç": 136,
      "È": 137,
      "É": 138,
      "Ê": 139,
      "Ë": 140,
      "Ì": 141,
      "Í": 142,
      "Î": 143,
      "Ð": 144,
      "Ñ": 145,
      "Ó": 146,
      "Ô": 147,
      "Ö": 148,
      "×": 149,
      "Ø": 150,
      "Ú": 151,
      "Ü": 152,
      "Þ": 153,
      "ß": 154,
      "à": 155,
      "á": 156,
      "â": 157,
      "ã": 158,
      "ä": 159,
      "å": 160,
      "æ": 161,
      "ç": 162,
      "è": 163,
      "é": 164,
      "ê": 165,
      "ë": 166,
      "ì": 167,
      "í": 168,
      "î": 169,
      "ï": 170,
      "ð": 171,
      "ñ": 172,
      "ò": 173,
      "ó": 174,
      "ô": 175,
      "õ": 176,
      "ö": 177,
      "÷": 178,
      "ø": 179,
      "ù": 180,
      "ú": 181,
      "û": 182,
      "ü": 183,
      "ý": 184,
      "þ": 185,
      "ÿ": 186,
      "ā": 187,
      "ă": 188,
      "ą": 189,
      "Ć": 190,
      "ć": 191,
      "Č": 192,
      "č": 193,
      "Đ": 194,
      "Ē": 195,
      "ē": 196,
      "ė": 197,
      "ę": 198,
      "ě": 199,
      "ğ": 200,
      "ġ": 201,
      "Ħ": 202,
      "ħ": 203,
      "Ī": 204,
      "ī": 205,
      "İ": 206,
      "ı": 207,
      "Ł": 208,
      "ł": 209,
      "ń": 210,
      "ň": 211,
      "Ō": 212,
      "ō": 213,
      "ŏ": 214,
      "ő": 215,
      "Œ": 216,
      "œ": 217,
      "ř": 218,
      "Ś": 219,
      "ś": 220,
      "Ş": 221,
      "ş": 222,
      "Š": 223,
      "š": 224,
      "Ţ": 225,
      "ţ": 226,
      "ū": 227,
      "Ÿ": 228,
      "ź": 229,
      "Ż": 230,
      "ż": 231,
      "Ž": 232,
      "ž": 233,
      "Ƙ": 234,
      "Ʀ": 235,
      "ǀ": 236,
      "ǃ": 237,
      "ǐ": 238,
      "ș": 239,
      "ț": 240,
      "ə": 241,
      "ʊ": 242,
      "ʻ": 243,
      "ʼ": 244,
      "ʽ": 245,
      "ʿ": 246,
      "ˆ": 247,
      "ˈ": 248,
      "˚": 249,
      "˜": 250,
      "˝": 251,
      "̀": 252,
      "́": 253,
      "̄": 254,
      "̈": 255,
      "̧": 256,
      ";": 257,
      "Α": 258,
      "Ζ": 259,
      "Ι": 260,
      "Λ": 261,
      "Ν": 262,
      "Τ": 263,
      "Ω": 264,
      "ά": 265,
      "ί": 266,
      "α": 267,
      "β": 268,
      "ε": 269,
      "ι": 270,
      "κ": 271,
      "μ": 272,
      "ν": 273,
      "ο": 274,
      "π": 275,
      "ρ": 276,
      "ς": 277,
      "σ": 278,
      "τ": 279,
      "φ": 280,
      "ό": 281,
      "ώ": 282,
      "ϟ": 283,
      "І": 284,
      "Ћ": 285,
      "К": 286,
      "М": 287,
      "О": 288,
      "П": 289,
      "С": 290,
      "У": 291,
      "а": 292,
      "б": 293,
      "в": 294,
      "д": 295,
      "е": 296,
      "з": 297,
      "и": 298,
      "й": 299,
      "к": 300,
      "л": 301,
      "м": 302,
      "н": 303,
      "о": 304,
      "п": 305,
      "р": 306,
      "с": 307,
      "т": 308,
      "у": 309,
      "ы": 310,
      "ь": 311,
      "ю": 312,
      "я": 313,
      "і": 314,
      "ї": 315,
      "Ӓ": 316,
      "Ӧ": 317,
      "Ԯ": 318,
      "ן": 319,
      "أ": 320,
      "ا": 321,
      "ب": 322,
      "ة": 323,
      "ت": 324,
      "ج": 325,
      "ح": 326,
      "ر": 327,
      "س": 328,
      "ش": 329,
      "ع": 330,
      "ف": 331,
      "ك": 332,
      "ل": 333,
      "م": 334,
      "و": 335,
      "ي": 336,
      "ง": 337,
      "ต": 338,
      "บ": 339,
      "ป": 340,
      "พ": 341,
      "ย": 342,
      "ร": 343,
      "ะ": 344,
      "ู": 345,
      "ḍ": 346,
      "Ḥ": 347,
      "ḥ": 348,
      "ṣ": 349,
      "ạ": 350,
      "ả": 351,
      "ấ": 352,
      "ế": 353,
      "ễ": 354,
      "ị": 355,
      "ồ": 356,
      "ἶ": 357,
      "ὴ": 358,
      "​": 359,
      "‍": 360,
      "‎": 361,
      "‏": 362,
      "‐": 363,
      "‑": 364,
      "‒": 365,
      "–": 366,
      "—": 367,
      "―": 368,
      "‘": 369,
      "’": 370,
      "‚": 371,
      "“": 372,
      "”": 373,
      "„": 374,
      "‟": 375,
      "†": 376,
      "‡": 377,
      "•": 378,
      "…": 379,
      "‪": 380,
      "‫": 381,
      "‬": 382,
      "‭": 383,
      "‰": 384,
      "′": 385,
      "″": 386,
      "‹": 387,
      "‼": 388,
      "⁄": 389,
      "⁮": 390,
      "⁰": 391,
      "₩": 392,
      "€": 393,
      "℃": 394,
      "™": 395,
      "⅓": 396,
      "⅔": 397,
      "⅛": 398,
      "⅜": 399,
      "→": 400,
      "∑": 401,
      "−": 402,
      "∙": 403,
      "∼": 404,
      "─": 405,
      "█": 406,
      "■": 407,
      "▬": 408,
      "▲": 409,
      "▼": 410,
      "●": 411,
      "★": 412,
      "☆": 413,
      "☺": 414,
      "♡": 415,
      "♥": 416,
      "❤": 417,
      "き": 418,
      "ご": 419,
      "さ": 420,
      "た": 421,
      "っ": 422,
      "て": 423,
      "ろ": 424,
      "ん": 425,
      "コ": 426,
      "ゴ": 427,
      "ネ": 428,
      "ル": 429,
      "ロ": 430,
      "ー": 431,
      "世": 432,
      "个": 433,
      "中": 434,
      "你": 435,
      "分": 436,
      "呀": 437,
      "四": 438,
      "回": 439,
      "声": 440,
      "外": 441,
      "女": 442,
      "家": 443,
      "寝": 444,
      "帰": 445,
      "年": 446,
      "心": 447,
      "新": 448,
      "方": 449,
      "明": 450,
      "春": 451,
      "曆": 452,
      "有": 453,
      "朝": 454,
      "来": 455,
      "松": 456,
      "没": 457,
      "游": 458,
      "界": 459,
      "石": 460,
      "等": 461,
      "節": 462,
      "紅": 463,
      "綠": 464,
      "縄": 465,
      "縯": 466,
      "自": 467,
      "藍": 468,
      "農": 469,
      "过": 470,
      "钱": 471,
      "门": 472,
      "音": 473,
      "鮭": 474,
      "강": 475,
      "남": 476,
      "스": 477,
      "일": 478,
      "타": 479,
      "": 480,
      "": 481,
      "": 482,
      "ﬀ": 483,
      "ﬁ": 484,
      "ﬂ": 485,
      "️": 486,
      "﻿": 487,
      "！": 488,
      "（": 489,
      "）": 490,
      "，": 491,
      "Ｍ": 492,
      "Ｓ": 493,
      "￥": 494,
      "￼": 495,
      "�": 496,
      "💀": 497,
      "😳": 498,
      "🙏": 499,
      "he": 500,
      "in": 501,
      "an": 502,
      "the": 503,
      "er": 504,
      "on": 505,
      "re": 506,
      "at": 507,
      "ed": 508,
      "en": 509,
      "to": 510,
      "st": 511,
      "or": 512,
      "ing": 513,
      "ar": 514,
      "al": 515,
      "it": 516,
      "ou": 517,
      "is": 518,
      "as": 519,
      "and": 520,
      "of": 521,
      "es": 522,
      "th": 523,
      "ic": 524,
      "le": 525,
      "om": 526,
      "il": 527,
      "id": 528,
      "be": 529,
      "ion": 530,
      "se": 531,
      "ac": 532,
      "ent": 533,
      "ve": 534,
      "ad": 535,
      "ay": 536,
      "am": 537,
      "for": 538,
      "ol": 539,
      "ow": 540,
      "ly": 541,
      "im": 542,
      "ch": 543,
      "ig": 544,
      "ro": 545,
      "was": 546,
      "ir": 547,
      "ter": 548,
      "ur": 549,
      "ver": 550,
      "The": 551,
      "ot": 552,
      "that": 553,
      "un": 554,
      "wh": 555,
      "ut": 556,
      "el": 557,
      "ag": 558,
      "ith": 559,
      "ri": 560,
      "sa": 561,
      "ha": 562,
      "with": 563,
      "ill": 564,
      "are": 565,
      "ce": 566,
      "et": 567,
      "us": 568,
      "ld": 569,
      "his": 570,
      "de": 571,
      "ne": 572,
      "ab": 573,
      "pe": 574,
      "li": 575,
      "con": 576,
      "ation": 577,
      "said": 578,
      "ers": 579,
      "lo": 580,
      "oun": 581,
      "mo": 582,
      "res": 583,
      "fr": 584,
      "out": 585,
      "ul": 586,
      "our": 587,
      "igh": 588,
      "com": 589,
      "all": 590,
      "ear": 591,
      "her": 592,
      "ke": 593,
      "ra": 594,
      "sh": 595,
      "ct": 596,
      "ther": 597,
      "op": 598,
      "we": 599,
      "em": 600,
      "by": 601,
      "su": 602,
      "la": 603,
      "have": 604,
      "from": 605,
      "has": 606,
      "one": 607,
      "ate": 608,
      "pro": 609,
      "pl": 610,
      "te": 611,
      "ap": 612,
      "ight": 613,
      "day": 614,
      "so": 615,
      "ex": 616,
      "art": 617,
      "af": 618,
      "00": 619,
      "ould": 620,
      "ain": 621,
      "man": 622,
      "di": 623,
      "fe": 624,
      "po": 625,
      "ant": 626,
      "end": 627,
      "ack": 628,
      "not": 629,
      "ment": 630,
      "ort": 631,
      "up": 632,
      "who": 633,
      "year": 634,
      "gh": 635,
      "ess": 636,
      "tr": 637,
      "ge": 638,
      "had": 639,
      "whe": 640,
      "ity": 641,
      "ist": 642,
      "over": 643,
      "ice": 644,
      "ere": 645,
      "ust": 646,
      "but": 647,
      "od": 648,
      "she": 649,
      "wor": 650,
      "ome": 651,
      "ard": 652,
      "ak": 653,
      "own": 654,
      "per": 655,
      "ive": 656,
      "they": 657,
      "been": 658,
      "were": 659,
      "after": 660,
      "sp": 661,
      "ound": 662,
      "au": 663,
      "their": 664,
      "qu": 665,
      "red": 666,
      "tor": 667,
      "off": 668,
      "do": 669,
      "ide": 670,
      "ast": 671,
      "will": 672,
      "ies": 673,
      "der": 674,
      "this": 675,
      "ok": 676,
      "ich": 677,
      "cl": 678,
      "ial": 679,
      "go": 680,
      "um": 681,
      "fo": 682,
      "ber": 683,
      "bo": 684,
      "port": 685,
      "tim": 686,
      "if": 687,
      "ough": 688,
      "ev": 689,
      "gr": 690,
      "act": 691,
      "me": 692,
      "He": 693,
      "pr": 694,
      "ine": 695,
      "In": 696,
      "20": 697,
      "ong": 698,
      "ous": 699,
      "cr": 700,
      "ie": 701,
      "ell": 702,
      "It": 703,
      "age": 704,
      "ud": 705,
      "can": 706,
      "ck": 707,
      "est": 708,
      "no": 709,
      "which": 710,
      "iv": 711,
      "ia": 712,
      "ho": 713,
      "co": 714,
      "wo": 715,
      "old": 716,
      "say": 717,
      "bl": 718,
      "ep": 719,
      "ts": 720,
      "ans": 721,
      "ace": 722,
      "now": 723,
      "che": 724,
      "ame": 725,
      "ary": 726,
      "ated": 727,
      "about": 728,
      "mer": 729,
      "ren": 730,
      "ally": 731,
      "when": 732,
      "more": 733,
      "Ch": 734,
      "ind": 735,
      "ail": 736,
      "other": 737,
      "ass": 738,
      "way": 739,
      "you": 740,
      "him": 741,
      "would": 742,
      "av": 743,
      "ff": 744,
      "att": 745,
      "ile": 746,
      "An": 747,
      "br": 748,
      "pol": 749,
      "ople": 750,
      "ake": 751,
      "its": 752,
      ".'": 753,
      "pp": 754,
      "dis": 755,
      "ence": 756,
      "ite": 757,
      "ident": 758,
      "ue": 759,
      "fir": 760,
      "201": 761,
      "comp": 762,
      "ild": 763,
      "also": 764,
      "work": 765,
      "ions": 766,
      "any": 767,
      "ree": 768,
      "cent": 769,
      "people": 770,
      "new": 771,
      "very": 772,
      "cre": 773,
      "mon": 774,
      "ict": 775,
      "ign": 776,
      "part": 777,
      "cor": 778,
      "get": 779,
      "two": 780,
      ",\"": 781,
      "than": 782,
      "some": 783,
      "St": 784,
      "ick": 785,
      "ss": 786,
      "time": 787,
      "my": 788,
      "pres": 789,
      "ure": 790,
      "able": 791,
      "ark": 792,
      "oll": 793,
      "fore": 794,
      "into": 795,
      "ian": 796,
      "last": 797,
      "just": 798,
      "ish": 799,
      "med": 800,
      "ip": 801,
      "Mr": 802,
      "Br": 803,
      "coun": 804,
      "ft": 805,
      "--": 806,
      "land": 807,
      "ek": 808,
      "them": 809,
      "ser": 810,
      "thing": 811,
      "str": 812,
      "told": 813,
      "ach": 814,
      "int": 815,
      "could": 816,
      "like": 817,
      "pre": 818,
      "But": 819,
      "ang": 820,
      "ath": 821,
      "son": 822,
      "ble": 823,
      "years": 824,
      "play": 825,
      "back": 826,
      "there": 827,
      "ade": 828,
      "We": 829,
      "amp": 830,
      "air": 831,
      ".\"": 832,
      "first": 833,
      "ance": 834,
      "Ne": 835,
      "ning": 836,
      "don": 837,
      "ry": 838,
      "cau": 839,
      "car": 840,
      "ved": 841,
      "ty": 842,
      "ire": 843,
      "hel": 844,
      "leg": 845,
      "sel": 846,
      "19": 847,
      "cont": 848,
      "ph": 849,
      "ug": 850,
      "ink": 851,
      "iss": 852,
      "down": 853,
      "fam": 854,
      "ily": 855,
      "min": 856,
      "ater": 857,
      "Th": 858,
      "used": 859,
      "ase": 860,
      "iz": 861,
      "ins": 862,
      "ving": 863,
      "ted": 864,
      "Un": 865,
      "She": 866,
      "inter": 867,
      "ting": 868,
      "ens": 869,
      "before": 870,
      "cause": 871,
      "what": 872,
      "tra": 873,
      "ical": 874,
      "ations": 875,
      "again": 876,
      "week": 877,
      "being": 878,
      "ob": 879,
      "show": 880,
      "enc": 881,
      "urn": 882,
      "fl": 883,
      "ful": 884,
      "ding": 885,
      "child": 886,
      "call": 887,
      "where": 888,
      "des": 889,
      "report": 890,
      "ious": 891,
      "Al": 892,
      ",'": 893,
      "home": 894,
      "most": 895,
      "uring": 896,
      "ition": 897,
      "000": 898,
      "offic": 899,
      "cho": 900,
      "sc": 901,
      "ates": 902,
      "try": 903,
      "did": 904,
      "cond": 905,
      "New": 906,
      "right": 907,
      "ton": 908,
      "under": 909,
      "tri": 910,
      "says": 911,
      "spe": 912,
      "found": 913,
      "wom": 914,
      "oup": 915,
      "cur": 916,
      "reat": 917,
      "200": 918,
      "thr": 919,
      "ction": 920,
      "ited": 921,
      "rem": 922,
      "ubl": 923,
      "police": 924,
      "ress": 925,
      "month": 926,
      "left": 927,
      "how": 928,
      "want": 929,
      "Le": 930,
      "add": 931,
      "because": 932,
      "look": 933,
      "ince": 934,
      "ann": 935,
      "three": 936,
      "og": 937,
      "incl": 938,
      "cer": 939,
      "ash": 940,
      "vers": 941,
      "dr": 942,
      "ub": 943,
      "ult": 944,
      "illion": 945,
      "fin": 946,
      "while": 947,
      "ef": 948,
      "hed": 949,
      "sto": 950,
      "only": 951,
      "als": 952,
      "char": 953,
      "sur": 954,
      "ents": 955,
      "vis": 956,
      "led": 957,
      "gu": 958,
      "tak": 959,
      "head": 960,
      "ured": 961,
      "ating": 962,
      "cted": 963,
      "come": 964,
      "bet": 965,
      "anc": 966,
      "pt": 967,
      "made": 968,
      "family": 969,
      "ose": 970,
      "cess": 971,
      "CN": 972,
      "And": 973,
      "ational": 974,
      "CNN": 975,
      "side": 976,
      "comm": 977,
      "lead": 978,
      "set": 979,
      "form": 980,
      "pos": 981,
      "bu": 982,
      "Fr": 983,
      "then": 984,
      "rest": 985,
      "riend": 986,
      "cour": 987,
      "against": 988,
      "kill": 989,
      "ters": 990,
      "Ar": 991,
      "cla": 992,
      "vic": 993,
      "ret": 994,
      "overn": 995,
      "during": 996,
      "ublic": 997,
      "ves": 998,
      "ouse": 999,
      "reg": 1000,
      "alk": 1001,
      "Mar": 1002,
      "life": 1003,
      "help": 1004,
      "read": 1005,
      "ced": 1006,
      "friend": 1007,
      "though": 1008,
      "ward": 1009,
      "through": 1010,
      "ise": 1011,
      "ities": 1012,
      "ven": 1013,
      "Wh": 1014,
      "Ro": 1015,
      "claim": 1016,
      "pict": 1017,
      "They": 1018,
      "appe": 1019,
      "even": 1020,
      "many": 1021,
      "De": 1022,
      "well": 1023,
      "ather": 1024,
      "includ": 1025,
      "col": 1026,
      "ital": 1027,
      "cle": 1028,
      "ster": 1029,
      "fi": 1030,
      "ner": 1031,
      "ors": 1032,
      "ank": 1033,
      "every": 1034,
      "long": 1035,
      "vie": 1036,
      "ask": 1037,
      "put": 1038,
      "..": 1039,
      "atch": 1040,
      "ever": 1041,
      "use": 1042,
      "cial": 1043,
      "cover": 1044,
      "dec": 1045,
      ".’": 1046,
      "Jo": 1047,
      "make": 1048,
      "si": 1049,
      "world": 1050,
      "vide": 1051,
      "clo": 1052,
      "du": 1053,
      "ased": 1054,
      "chool": 1055,
      "rel": 1056,
      "around": 1057,
      "vel": 1058,
      "cording": 1059,
      "know": 1060,
      "law": 1061,
      "10": 1062,
      "test": 1063,
      "million": 1064,
      "beli": 1065,
      "self": 1066,
      "see": 1067,
      "uch": 1068,
      "sy": 1069,
      "war": 1070,
      "Brit": 1071,
      "children": 1072,
      "En": 1073,
      "ctor": 1074,
      "need": 1075,
      "This": 1076,
      "vest": 1077,
      "pers": 1078,
      "ason": 1079,
      "going": 1080,
      "ffer": 1081,
      "Amer": 1082,
      "overnment": 1083,
      "Americ": 1084,
      "ger": 1085,
      "four": 1086,
      "take": 1087,
      "think": 1088,
      "Re": 1089,
      "team": 1090,
      "hand": 1091,
      "ris": 1092,
      "aren": 1093,
      "night": 1094,
      "came": 1095,
      "mil": 1096,
      "start": 1097,
      "ten": 1098,
      "As": 1099,
      "ings": 1100,
      "ama": 1101,
      "line": 1102,
      "cus": 1103,
      "ged": 1104,
      "ollow": 1105,
      "cap": 1106,
      "cut": 1107,
      "gan": 1108,
      "bed": 1109,
      "attack": 1110,
      "miss": 1111,
      "should": 1112,
      "outh": 1113,
      "arri": 1114,
      "tain": 1115,
      "may": 1116,
      "ms": 1117,
      "ures": 1118,
      "let": 1119,
      "since": 1120,
      "xt": 1121,
      "ale": 1122,
      "win": 1123,
      "ling": 1124,
      "tory": 1125,
      "esday": 1126,
      "still": 1127,
      "happ": 1128,
      "view": 1129,
      "os": 1130,
      "ared": 1131,
      "bre": 1132,
      "mother": 1133,
      "alth": 1134,
      "death": 1135,
      "mem": 1136,
      "stand": 1137,
      "ual": 1138,
      "run": 1139,
      "ES": 1140,
      "high": 1141,
      "bro": 1142,
      "your": 1143,
      "sm": 1144,
      "pon": 1145,
      "hen": 1146,
      "irl": 1147,
      "ody": 1148,
      "jo": 1149,
      "emp": 1150,
      "those": 1151,
      "und": 1152,
      "Se": 1153,
      "bor": 1154,
      "invest": 1155,
      "ney": 1156,
      "Mo": 1157,
      "aw": 1158,
      "ED": 1159,
      "ement": 1160,
      "ime": 1161,
      "aking": 1162,
      "near": 1163,
      "official": 1164,
      "les": 1165,
      "No": 1166,
      "school": 1167,
      "follow": 1168,
      "By": 1169,
      "ments": 1170,
      "group": 1171,
      "ci": 1172,
      "called": 1173,
      "sl": 1174,
      "got": 1175,
      "sign": 1176,
      "ames": 1177,
      "je": 1178,
      "country": 1179,
      "exp": 1180,
      "del": 1181,
      "gest": 1182,
      "ca": 1183,
      "ied": 1184,
      "government": 1185,
      "ween": 1186,
      "For": 1187,
      "dri": 1188,
      "men": 1189,
      "ma": 1190,
      "kes": 1191,
      "vi": 1192,
      "spo": 1193,
      "United": 1194,
      "ham": 1195,
      "less": 1196,
      "sho": 1197,
      "EST": 1198,
      "cal": 1199,
      "ener": 1200,
      "ley": 1201,
      "ave": 1202,
      "top": 1203,
      "ists": 1204,
      "ross": 1205,
      "person": 1206,
      "fer": 1207,
      "between": 1208,
      "Pol": 1209,
      "including": 1210,
      "ball": 1211,
      "former": 1212,
      "national": 1213,
      "ular": 1214,
      "vol": 1215,
      "such": 1216,
      "Mon": 1217,
      "app": 1218,
      "ran": 1219,
      "ele": 1220,
      "second": 1221,
      "ower": 1222,
      "public": 1223,
      "sent": 1224,
      "ister": 1225,
      "book": 1226,
      "At": 1227,
      "much": 1228,
      "There": 1229,
      "eng": 1230,
      "court": 1231,
      "care": 1232,
      "sen": 1233,
      "unt": 1234,
      "Pr": 1235,
      "ife": 1236,
      "cu": 1237,
      "sex": 1238,
      "Eng": 1239,
      "IS": 1240,
      "ship": 1241,
      "plan": 1242,
      "On": 1243,
      "fil": 1244,
      "giv": 1245,
      "ned": 1246,
      "pass": 1247,
      "ina": 1248,
      "ised": 1249,
      "ib": 1250,
      "ury": 1251,
      "good": 1252,
      "took": 1253,
      "pect": 1254,
      "stud": 1255,
      "num": 1256,
      "ened": 1257,
      "Be": 1258,
      "ics": 1259,
      "resident": 1260,
      "ah": 1261,
      "girl": 1262,
      "ork": 1263,
      "video": 1264,
      "body": 1265,
      "sup": 1266,
      "youn": 1267,
      "Ob": 1268,
      "2013": 1269,
      "tle": 1270,
      "ined": 1271,
      "investig": 1272,
      "bus": 1273,
      "ys": 1274,
      "thor": 1275,
      "def": 1276,
      "women": 1277,
      "hour": 1278,
      "away": 1279,
      "50": 1280,
      "ral": 1281,
      "Co": 1282,
      "hoto": 1283,
      "pri": 1284,
      "ages": 1285,
      "place": 1286,
      "according": 1287,
      "ds": 1288,
      "days": 1289,
      "quest": 1290,
      "Lon": 1291,
      "Man": 1292,
      "next": 1293,
      "ier": 1294,
      "fac": 1295,
      "Af": 1296,
      "never": 1297,
      "kn": 1298,
      "five": 1299,
      "ched": 1300,
      "room": 1301,
      "woman": 1302,
      "sure": 1303,
      "stat": 1304,
      "spital": 1305,
      "London": 1306,
      "ines": 1307,
      "ative": 1308,
      "Nor": 1309,
      "hu": 1310,
      "later": 1311,
      "uck": 1312,
      "olog": 1313,
      "wr": 1314,
      "vice": 1315,
      "30": 1316,
      "went": 1317,
      "respon": 1318,
      "bers": 1319,
      "house": 1320,
      "augh": 1321,
      "another": 1322,
      "oney": 1323,
      "Bo": 1324,
      "Car": 1325,
      "ness": 1326,
      "par": 1327,
      "point": 1328,
      "state": 1329,
      "rist": 1330,
      "alleg": 1331,
      "seen": 1332,
      "case": 1333,
      "sing": 1334,
      "den": 1335,
      "contr": 1336,
      "io": 1337,
      "added": 1338,
      "pay": 1339,
      "iday": 1340,
      "Mc": 1341,
      "acc": 1342,
      "imp": 1343,
      "months": 1344,
      "photo": 1345,
      "12": 1346,
      "arch": 1347,
      "sol": 1348,
      "Con": 1349,
      "ll": 1350,
      "mber": 1351,
      "contin": 1352,
      "pictured": 1353,
      "rele": 1354,
      "aged": 1355,
      "hal": 1356,
      "wit": 1357,
      "big": 1358,
      "hn": 1359,
      "uro": 1360,
      "fect": 1361,
      "11": 1362,
      "foot": 1363,
      "sk": 1364,
      "mark": 1365,
      "uary": 1366,
      "here": 1367,
      "too": 1368,
      "find": 1369,
      "lit": 1370,
      "ax": 1371,
      "lar": 1372,
      "died": 1373,
      "same": 1374,
      "exper": 1375,
      "these": 1376,
      "gra": 1377,
      "clear": 1378,
      "ces": 1379,
      "post": 1380,
      "reported": 1381,
      "real": 1382,
      "support": 1383,
      "ants": 1384,
      "ually": 1385,
      "camp": 1386,
      "does": 1387,
      "taken": 1388,
      "oper": 1389,
      "pped": 1390,
      "mit": 1391,
      "Com": 1392,
      "ison": 1393,
      "ffic": 1394,
      "ended": 1395,
      "Sun": 1396,
      "won": 1397,
      "face": 1398,
      "father": 1399,
      "Obama": 1400,
      "press": 1401,
      "both": 1402,
      "ivers": 1403,
      "John": 1404,
      "York": 1405,
      "cons": 1406,
      "Bar": 1407,
      "ague": 1408,
      "issu": 1409,
      "ago": 1410,
      "sub": 1411,
      "2012": 1412,
      "today": 1413,
      "blo": 1414,
      "inj": 1415,
      "Li": 1416,
      "ways": 1417,
      "Wor": 1418,
      "ility": 1419,
      "inc": 1420,
      "atur": 1421,
      "cri": 1422,
      "six": 1423,
      "star": 1424,
      "Dav": 1425,
      "arrest": 1426,
      "Police": 1427,
      "18": 1428,
      "allow": 1429,
      "ets": 1430,
      "15": 1431,
      "move": 1432,
      "rent": 1433,
      "West": 1434,
      "wife": 1435,
      "far": 1436,
      "turn": 1437,
      "young": 1438,
      "sha": 1439,
      "oc": 1440,
      "ready": 1441,
      "Tu": 1442,
      "ste": 1443,
      "sus": 1444,
      "using": 1445,
      "produ": 1446,
      "site": 1447,
      "nor": 1448,
      "ency": 1449,
      "Sp": 1450,
      "South": 1451,
      "killed": 1452,
      "really": 1453,
      "health": 1454,
      "If": 1455,
      "az": 1456,
      "appear": 1457,
      "bab": 1458,
      "pat": 1459,
      "When": 1460,
      "poss": 1461,
      "sit": 1462,
      "ered": 1463,
      "You": 1464,
      "dire": 1465,
      "shot": 1466,
      "Sy": 1467,
      "feel": 1468,
      "band": 1469,
      "season": 1470,
      "didn": 1471,
      "milit": 1472,
      "det": 1473,
      "daugh": 1474,
      "net": 1475,
      "rece": 1476,
      "How": 1477,
      "aid": 1478,
      "remain": 1479,
      "prev": 1480,
      "urs": 1481,
      "ific": 1482,
      "ony": 1483,
      "So": 1484,
      "ange": 1485,
      "ene": 1486,
      "aff": 1487,
      "recent": 1488,
      "sever": 1489,
      "lot": 1490,
      "fire": 1491,
      "AT": 1492,
      "Euro": 1493,
      "That": 1494,
      "stri": 1495,
      "known": 1496,
      "Rep": 1497,
      "best": 1498,
      "ible": 1499,
      "ps": 1500,
      "light": 1501,
      "president": 1502,
      "polit": 1503,
      "ought": 1504,
      "late": 1505,
      "World": 1506,
      "One": 1507,
      "half": 1508,
      "ore": 1509,
      "water": 1510,
      "Cl": 1511,
      "number": 1512,
      "May": 1513,
      "gy": 1514,
      "game": 1515,
      "incre": 1516,
      "iness": 1517,
      "ref": 1518,
      "Ste": 1519,
      "ending": 1520,
      "club": 1521,
      "England": 1522,
      "list": 1523,
      "Aust": 1524,
      "loy": 1525,
      "author": 1526,
      "amer": 1527,
      "minut": 1528,
      "Sh": 1529,
      "British": 1530,
      "met": 1531,
      "ator": 1532,
      "wn": 1533,
      "iting": 1534,
      "eld": 1535,
      "curity": 1536,
      "Is": 1537,
      "build": 1538,
      "money": 1539,
      "keep": 1540,
      "differ": 1541,
      "paren": 1542,
      "pop": 1543,
      "return": 1544,
      "spokes": 1545,
      "ont": 1546,
      "Pe": 1547,
      "prom": 1548,
      "stem": 1549,
      "His": 1550,
      "few": 1551,
      "ford": 1552,
      "mor": 1553,
      "ining": 1554,
      "hospital": 1555,
      "'.": 1556,
      "reve": 1557,
      "bar": 1558,
      "order": 1559,
      "ones": 1560,
      "vid": 1561,
      "hold": 1562,
      "ject": 1563,
      "mat": 1564,
      "hit": 1565,
      "colle": 1566,
      "pected": 1567,
      "ped": 1568,
      "company": 1569,
      "President": 1570,
      "believ": 1571,
      "ext": 1572,
      "ern": 1573,
      "tors": 1574,
      "16": 1575,
      "ons": 1576,
      "Ju": 1577,
      "American": 1578,
      "Gr": 1579,
      "Go": 1580,
      "ember": 1581,
      "Rus": 1582,
      "Jan": 1583,
      "open": 1584,
      "ges": 1585,
      "val": 1586,
      "mur": 1587,
      "Sunday": 1588,
      "victim": 1589,
      "UK": 1590,
      "until": 1591,
      "city": 1592,
      "thought": 1593,
      "commun": 1594,
      "without": 1595,
      "talk": 1596,
      "gre": 1597,
      "hours": 1598,
      "ished": 1599,
      "having": 1600,
      "deal": 1601,
      "ety": 1602,
      "asked": 1603,
      "sum": 1604,
      "Coun": 1605,
      "Mic": 1606,
      "gun": 1607,
      "recor": 1608,
      "daughter": 1609,
      "ey": 1610,
      "walk": 1611,
      "ired": 1612,
      "City": 1613,
      "invol": 1614,
      "Christ": 1615,
      "ager": 1616,
      "eve": 1617,
      "proble": 1618,
      "ately": 1619,
      "saying": 1620,
      "14": 1621,
      "cot": 1622,
      "prof": 1623,
      "Monday": 1624,
      "ives": 1625,
      "ground": 1626,
      "ord": 1627,
      "Ger": 1628,
      "bur": 1629,
      "cas": 1630,
      "Har": 1631,
      "Min": 1632,
      "ism": 1633,
      "ying": 1634,
      "ror": 1635,
      "To": 1636,
      "times": 1637,
      "mid": 1638,
      "amed": 1639,
      "ient": 1640,
      "ional": 1641,
      "Europe": 1642,
      "job": 1643,
      "appro": 1644,
      "each": 1645,
      "dead": 1646,
      "cost": 1647,
      "comple": 1648,
      "power": 1649,
      "fight": 1650,
      "Miss": 1651,
      "Tuesday": 1652,
      "mar": 1653,
      "working": 1654,
      "lier": 1655,
      "search": 1656,
      "given": 1657,
      "Cr": 1658,
      "coup": 1659,
      "dam": 1660,
      "alleged": 1661,
      "aign": 1662,
      "David": 1663,
      "velo": 1664,
      "present": 1665,
      "idence": 1666,
      "17": 1667,
      "ats": 1668,
      "close": 1669,
      "gl": 1670,
      "ali": 1671,
      "past": 1672,
      "little": 1673,
      "something": 1674,
      "following": 1675,
      "boy": 1676,
      "cret": 1677,
      "across": 1678,
      "sport": 1679,
      "Friday": 1680,
      "hol": 1681,
      "tell": 1682,
      "lim": 1683,
      "ailed": 1684,
      "viol": 1685,
      "iversity": 1686,
      "coming": 1687,
      "action": 1688,
      "Austral": 1689,
      "ird": 1690,
      "statement": 1691,
      "bel": 1692,
      "reveal": 1693,
      "drug": 1694,
      "fort": 1695,
      "system": 1696,
      "hard": 1697,
      "PD": 1698,
      "prison": 1699,
      "Ph": 1700,
      "bit": 1701,
      "rain": 1702,
      "officials": 1703,
      "une": 1704,
      "sea": 1705,
      "trans": 1706,
      "ric": 1707,
      "front": 1708,
      "Wed": 1709,
      "Her": 1710,
      "area": 1711,
      "Col": 1712,
      "pite": 1713,
      "descri": 1714,
      "suffer": 1715,
      "murder": 1716,
      "13": 1717,
      "After": 1718,
      "parents": 1719,
      "along": 1720,
      "taking": 1721,
      "organ": 1722,
      "iam": 1723,
      "plac": 1724,
      "jor": 1725,
      "early": 1726,
      "friends": 1727,
      "already": 1728,
      "25": 1729,
      "Ge": 1730,
      "couple": 1731,
      "suc": 1732,
      "ized": 1733,
      "Will": 1734,
      "campaign": 1735,
      "business": 1736,
      "TV": 1737,
      "199": 1738,
      "enn": 1739,
      "ision": 1740,
      "great": 1741,
      "hind": 1742,
      "covered": 1743,
      "members": 1744,
      "Wedn": 1745,
      "North": 1746,
      "Wednesday": 1747,
      "feat": 1748,
      "gener": 1749,
      "Dr": 1750,
      "Cup": 1751,
      "road": 1752,
      "Satur": 1753,
      "inal": 1754,
      "ically": 1755,
      "stre": 1756,
      "League": 1757,
      "believe": 1758,
      "change": 1759,
      "current": 1760,
      "gram": 1761,
      "always": 1762,
      "Saturday": 1763,
      "treat": 1764,
      "Pro": 1765,
      "military": 1766,
      "concer": 1767,
      "ived": 1768,
      "event": 1769,
      "ches": 1770,
      "outside": 1771,
      "making": 1772,
      "meet": 1773,
      "phone": 1774,
      "hus": 1775,
      "round": 1776,
      "incident": 1777,
      "threat": 1778,
      "develo": 1779,
      "started": 1780,
      "weeks": 1781,
      "free": 1782,
      "...": 1783,
      "chang": 1784,
      ",’": 1785,
      "give": 1786,
      "vo": 1787,
      "ief": 1788,
      "behind": 1789,
      "mak": 1790,
      "hes": 1791,
      "cele": 1792,
      "Thurs": 1793,
      "husband": 1794,
      "fun": 1795,
      "Cour": 1796,
      "heard": 1797,
      "ude": 1798,
      "jud": 1799,
      "wear": 1800,
      "town": 1801,
      "Thursday": 1802,
      "Inter": 1803,
      "become": 1804,
      "security": 1805,
      "Russ": 1806,
      "wa": 1807,
      "soci": 1808,
      "que": 1809,
      "travel": 1810,
      "news": 1811,
      "rid": 1812,
      "wanted": 1813,
      "marri": 1814,
      "Ms": 1815,
      "saw": 1816,
      "ush": 1817,
      "ified": 1818,
      "sug": 1819,
      "bal": 1820,
      "formation": 1821,
      "ATED": 1822,
      "mp": 1823,
      "mom": 1824,
      "Bl": 1825,
      "UPD": 1826,
      "celebr": 1827,
      "legal": 1828,
      "break": 1829,
      "UPDATED": 1830,
      "),": 1831,
      "ming": 1832,
      "love": 1833,
      "whether": 1834,
      "lost": 1835,
      "final": 1836,
      "fact": 1837,
      "design": 1838,
      "local": 1839,
      "BL": 1840,
      "several": 1841,
      "imes": 1842,
      "flo": 1843,
      "cast": 1844,
      "40": 1845,
      "crit": 1846,
      "different": 1847,
      "All": 1848,
      "row": 1849,
      "ani": 1850,
      "istr": 1851,
      "fall": 1852,
      "released": 1853,
      "least": 1854,
      "ues": 1855,
      "PU": 1856,
      "heart": 1857,
      "announ": 1858,
      "ior": 1859,
      "BC": 1860,
      "iously": 1861,
      "key": 1862,
      "Tr": 1863,
      "artment": 1864,
      "ISH": 1865,
      "might": 1866,
      "seem": 1867,
      "House": 1868,
      "Ho": 1869,
      "lor": 1870,
      "PUBL": 1871,
      "dra": 1872,
      "held": 1873,
      "ales": 1874,
      "ISHED": 1875,
      "ica": 1876,
      "PUBLISHED": 1877,
      "party": 1878,
      "claims": 1879,
      "comes": 1880,
      "dro": 1881,
      "likely": 1882,
      "tar": 1883,
      "hom": 1884,
      "human": 1885,
      "gether": 1886,
      "dog": 1887,
      "conv": 1888,
      "main": 1889,
      "pen": 1890,
      "por": 1891,
      "arrested": 1892,
      "chester": 1893,
      "ention": 1894,
      "fur": 1895,
      "looking": 1896,
      "stit": 1897,
      "ators": 1898,
      "small": 1899,
      "major": 1900,
      "dep": 1901,
      "prote": 1902,
      "hear": 1903,
      "stru": 1904,
      "hot": 1905,
      "success": 1906,
      "100": 1907,
      "Scot": 1908,
      "tax": 1909,
      "Afr": 1910,
      "food": 1911,
      "proper": 1912,
      "ands": 1913,
      "Mrs": 1914,
      "mess": 1915,
      "Ac": 1916,
      "pool": 1917,
      "live": 1918,
      "better": 1919,
      "things": 1920,
      "spokesman": 1921,
      "ory": 1922,
      "cher": 1923,
      "claimed": 1924,
      "ull": 1925,
      "ik": 1926,
      "ards": 1927,
      "erg": 1928,
      "Britain": 1929,
      "wards": 1930,
      "conom": 1931,
      "must": 1932,
      "ria": 1933,
      "trying": 1934,
      "consid": 1935,
      "shows": 1936,
      "full": 1937,
      "Lo": 1938,
      "record": 1939,
      "short": 1940,
      "players": 1941,
      "gn": 1942,
      "Scr": 1943,
      "eral": 1944,
      "ances": 1945,
      "custo": 1946,
      "Par": 1947,
      "Court": 1948,
      "stay": 1949,
      "step": 1950,
      "together": 1951,
      "cked": 1952,
      "name": 1953,
      "sw": 1954,
      "expected": 1955,
      "import": 1956,
      "level": 1957,
      "watch": 1958,
      "Gu": 1959,
      "class": 1960,
      "ane": 1961,
      "media": 1962,
      "field": 1963,
      "vir": 1964,
      "pain": 1965,
      "vot": 1966,
      "force": 1967,
      "tech": 1968,
      "among": 1969,
      "rul": 1970,
      "2011": 1971,
      "ept": 1972,
      "ising": 1973,
      "qual": 1974,
      "January": 1975,
      "Scroll": 1976,
      "ington": 1977,
      "cy": 1978,
      "University": 1979,
      "based": 1980,
      "ution": 1981,
      "States": 1982,
      "officers": 1983,
      "ided": 1984,
      "cept": 1985,
      "moved": 1986,
      "grow": 1987,
      "seven": 1988,
      "However": 1989,
      "enter": 1990,
      "atic": 1991,
      "ize": 1992,
      "anger": 1993,
      "har": 1994,
      "Face": 1995,
      "program": 1996,
      "sed": 1997,
      "once": 1998,
      "elt": 1999,
      "posed": 2000,
      "My": 2001,
      "laun": 2002,
      "Manchester": 2003,
      "himself": 2004,
      "gin": 2005,
      "morning": 2006,
      "experi": 2007,
      "partic": 2008,
      "began": 2009,
      "ential": 2010,
      "priv": 2011,
      "Dep": 2012,
      "dem": 2013,
      "suggest": 2014,
      "rote": 2015,
      "bir": 2016,
      "earlier": 2017,
      "hor": 2018,
      "Geor": 2019,
      "staff": 2020,
      "minutes": 2021,
      "Oc": 2022,
      "decision": 2023,
      "wrote": 2024,
      "Mail": 2025,
      "24": 2026,
      "aut": 2027,
      "acy": 2028,
      "sco": 2029,
      "position": 2030,
      "hael": 2031,
      "ester": 2032,
      "econom": 2033,
      "revealed": 2034,
      "urch": 2035,
      "investigation": 2036,
      "sty": 2037,
      "doing": 2038,
      "Facebook": 2039,
      "web": 2040,
      "bot": 2041,
      "information": 2042,
      "Fe": 2043,
      "ute": 2044,
      "ians": 2045,
      "US": 2046,
      "kid": 2047,
      "employ": 2048,
      "black": 2049,
      "goal": 2050,
      "interest": 2051,
      "Fo": 2052,
      "Sept": 2053,
      "risk": 2054,
      "became": 2055,
      "strong": 2056,
      "ints": 2057,
      "ana": 2058,
      "conf": 2059,
      "What": 2060,
      "omb": 2061,
      "third": 2062,
      "War": 2063,
      "terror": 2064,
      "cil": 2065,
      "authorities": 2066,
      "enough": 2067,
      "ugg": 2068,
      "others": 2069,
      "large": 2070,
      "possible": 2071,
      "ping": 2072,
      "Me": 2073,
      "social": 2074,
      "admit": 2075,
      "esterday": 2076,
      "why": 2077,
      "ler": 2078,
      "aul": 2079,
      "Michael": 2080,
      "nal": 2081,
      "pot": 2082,
      "football": 2083,
      "shoot": 2084,
      "commit": 2085,
      "aily": 2086,
      "supp": 2087,
      "count": 2088,
      "evidence": 2089,
      "September": 2090,
      "National": 2091,
      "Republic": 2092,
      "done": 2093,
      "ences": 2094,
      "compet": 2095,
      "Lu": 2096,
      "match": 2097,
      "ense": 2098,
      "due": 2099,
      "getting": 2100,
      "Ser": 2101,
      "accused": 2102,
      "fell": 2103,
      "stop": 2104,
      "wind": 2105,
      "doctor": 2106,
      "ecut": 2107,
      "Ed": 2108,
      "van": 2109,
      "mission": 2110,
      "ond": 2111,
      "ai": 2112,
      "played": 2113,
      "host": 2114,
      "hope": 2115,
      "vember": 2116,
      "shop": 2117,
      "appeared": 2118,
      "service": 2119,
      "ried": 2120,
      "November": 2121,
      "Dece": 2122,
      "control": 2123,
      "ben": 2124,
      "special": 2125,
      "Po": 2126,
      "William": 2127,
      "December": 2128,
      "Aug": 2129,
      "60": 2130,
      "requ": 2131,
      "ring": 2132,
      "charged": 2133,
      "lives": 2134,
      "almost": 2135,
      "vices": 2136,
      "tober": 2137,
      "ze": 2138,
      "board": 2139,
      "Cor": 2140,
      "eight": 2141,
      "mocr": 2142,
      "reason": 2143,
      "22": 2144,
      "October": 2145,
      "March": 2146,
      "interview": 2147,
      "hop": 2148,
      "’.": 2149,
      "wood": 2150,
      "cra": 2151,
      "trial": 2152,
      "bul": 2153,
      "21": 2154,
      "dest": 2155,
      "anim": 2156,
      "protest": 2157,
      "shire": 2158,
      "grand": 2159,
      "ology": 2160,
      "Am": 2161,
      "August": 2162,
      "Park": 2163,
      "Pal": 2164,
      "reed": 2165,
      "charges": 2166,
      "brother": 2167,
      "effect": 2168,
      "June": 2169,
      "Char": 2170,
      "slam": 2171,
      "fully": 2172,
      "mus": 2173,
      "rew": 2174,
      "techn": 2175,
      "spent": 2176,
      "happened": 2177,
      "iver": 2178,
      "Just": 2179,
      "polic": 2180,
      "tal": 2181,
      "Ex": 2182,
      "spot": 2183,
      "Ab": 2184,
      "ugh": 2185,
      "flight": 2186,
      "ston": 2187,
      "fut": 2188,
      "political": 2189,
      "tried": 2190,
      "often": 2191,
      "fig": 2192,
      "ament": 2193,
      "istan": 2194,
      "ken": 2195,
      "ium": 2196,
      "loc": 2197,
      "Some": 2198,
      "teen": 2199,
      "lear": 2200,
      "international": 2201,
      "yet": 2202,
      "Indi": 2203,
      "2010": 2204,
      "photogra": 2205,
      "China": 2206,
      "ering": 2207,
      "bi": 2208,
      "aly": 2209,
      "turned": 2210,
      "fans": 2211,
      "online": 2212,
      "important": 2213,
      "ctions": 2214,
      "born": 2215,
      "stead": 2216,
      "office": 2217,
      "uel": 2218,
      "nation": 2219,
      "execut": 2220,
      "inside": 2221,
      "aper": 2222,
      "confir": 2223,
      "term": 2224,
      "State": 2225,
      "market": 2226,
      "crim": 2227,
      "baby": 2228,
      "bad": 2229,
      "leave": 2230,
      "involved": 2231,
      "ban": 2232,
      "July": 2233,
      "dle": 2234,
      "tries": 2235,
      "pair": 2236,
      "Can": 2237,
      "low": 2238,
      "received": 2239,
      "tw": 2240,
      "ails": 2241,
      "believed": 2242,
      "film": 2243,
      "uc": 2244,
      "Apr": 2245,
      "fed": 2246,
      "adv": 2247,
      "described": 2248,
      "question": 2249,
      "April": 2250,
      "yal": 2251,
      "aster": 2252,
      "gave": 2253,
      "Or": 2254,
      "future": 2255,
      "James": 2256,
      "thern": 2257,
      "further": 2258,
      "With": 2259,
      "lex": 2260,
      "icted": 2261,
      "target": 2262,
      "relation": 2263,
      "aving": 2264,
      "23": 2265,
      "ening": 2266,
      "Jack": 2267,
      "bring": 2268,
      "igr": 2269,
      "activ": 2270,
      "scre": 2271,
      "mean": 2272,
      "lish": 2273,
      "assa": 2274,
      "dou": 2275,
      "tro": 2276,
      "ix": 2277,
      "manager": 2278,
      "miles": 2279,
      "Ira": 2280,
      "super": 2281,
      "Ham": 2282,
      "ns": 2283,
      "jour": 2284,
      "prose": 2285,
      "living": 2286,
      "sim": 2287,
      "rap": 2288,
      "yesterday": 2289,
      "director": 2290,
      "wed": 2291,
      "Iraq": 2292,
      "bank": 2293,
      "witter": 2294,
      "Mart": 2295,
      "scene": 2296,
      "eas": 2297,
      "Res": 2298,
      "squ": 2299,
      "officer": 2300,
      "trad": 2301,
      "ribut": 2302,
      "fit": 2303,
      "doesn": 2304,
      "chall": 2305,
      "story": 2306,
      "community": 2307,
      "process": 2308,
      "building": 2309,
      "birth": 2310,
      "within": 2311,
      "spec": 2312,
      "torney": 2313,
      "ico": 2314,
      "America": 2315,
      "lying": 2316,
      "leaders": 2317,
      "While": 2318,
      "mag": 2319,
      "dress": 2320,
      "billion": 2321,
      "cell": 2322,
      "nia": 2323,
      "complete": 2324,
      "White": 2325,
      "batt": 2326,
      "ino": 2327,
      "neigh": 2328,
      "dist": 2329,
      "Twitter": 2330,
      "despite": 2331,
      "forward": 2332,
      "comment": 2333,
      "famil": 2334,
      "rac": 2335,
      "ries": 2336,
      "ivil": 2337,
      "Sen": 2338,
      "itions": 2339,
      "certain": 2340,
      "Ang": 2341,
      "Don": 2342,
      "ilar": 2343,
      "kind": 2344,
      "someone": 2345,
      "leader": 2346,
      "ded": 2347,
      "vision": 2348,
      "worth": 2349,
      "tee": 2350,
      "Sm": 2351,
      "tre": 2352,
      "issue": 2353,
      "writ": 2354,
      "2014": 2355,
      "icle": 2356,
      "diffic": 2357,
      "imm": 2358,
      "abo": 2359,
      "named": 2360,
      "idge": 2361,
      "sour": 2362,
      "Chel": 2363,
      "wide": 2364,
      "deb": 2365,
      "Te": 2366,
      "chief": 2367,
      "News": 2368,
      "history": 2369,
      "Air": 2370,
      "bert": 2371,
      "Paul": 2372,
      "docu": 2373,
      "Department": 2374,
      "rad": 2375,
      "East": 2376,
      "rench": 2377,
      "San": 2378,
      "Wash": 2379,
      "beat": 2380,
      "Minister": 2381,
      "course": 2382,
      "ung": 2383,
      "tour": 2384,
      "aur": 2385,
      "Cali": 2386,
      "pick": 2387,
      "ached": 2388,
      "Je": 2389,
      "reports": 2390,
      "198": 2391,
      "ahead": 2392,
      "training": 2393,
      "forced": 2394,
      "ensive": 2395,
      "Califor": 2396,
      "Sam": 2397,
      "Sup": 2398,
      "capt": 2399,
      "guil": 2400,
      "playing": 2401,
      "mass": 2402,
      "player": 2403,
      "Des": 2404,
      "cretary": 2405,
      "Hol": 2406,
      "paid": 2407,
      "ple": 2408,
      "worked": 2409,
      "Washington": 2410,
      "ices": 2411,
      "itive": 2412,
      "drink": 2413,
      "County": 2414,
      "ults": 2415,
      "Febr": 2416,
      "February": 2417,
      "admitted": 2418,
      "27": 2419,
      "Rom": 2420,
      "oud": 2421,
      "Do": 2422,
      "reme": 2423,
      "relationship": 2424,
      "mas": 2425,
      "carry": 2426,
      "series": 2427,
      "wasn": 2428,
      "decl": 2429,
      "rights": 2430,
      "model": 2431,
      "rian": 2432,
      "Ear": 2433,
      "El": 2434,
      "Kore": 2435,
      "white": 2436,
      "ides": 2437,
      "summer": 2438,
      "anything": 2439,
      "provid": 2440,
      "ability": 2441,
      "spir": 2442,
      "park": 2443,
      "susp": 2444,
      "role": 2445,
      "26": 2446,
      "California": 2447,
      "popular": 2448,
      "serv": 2449,
      "medi": 2450,
      "acher": 2451,
      "ray": 2452,
      "veh": 2453,
      "tit": 2454,
      "moment": 2455,
      "Liver": 2456,
      "ron": 2457,
      "Australia": 2458,
      "website": 2459,
      "28": 2460,
      "suit": 2461,
      "bill": 2462,
      "explo": 2463,
      "hig": 2464,
      "gress": 2465,
      "quick": 2466,
      "**": 2467,
      "responsi": 2468,
      "ousands": 2469,
      "camer": 2470,
      "selves": 2471,
      "space": 2472,
      "ican": 2473,
      "Mil": 2474,
      "fav": 2475,
      "French": 2476,
      "Bra": 2477,
      "nothing": 2478,
      "uation": 2479,
      "arm": 2480,
      "wrong": 2481,
      "Liverpool": 2482,
      "announced": 2483,
      "mis": 2484,
      "dies": 2485,
      "hip": 2486,
      "students": 2487,
      "Chelsea": 2488,
      "continue": 2489,
      "Gre": 2490,
      "expla": 2491,
      "ination": 2492,
      "ampion": 2493,
      "dy": 2494,
      "European": 2495,
      "weight": 2496,
      "fund": 2497,
      "defend": 2498,
      "condition": 2499,
      "continu": 2500,
      "medical": 2501,
      "bour": 2502,
      "difficult": 2503,
      "Mad": 2504,
      "treatment": 2505,
      "cancer": 2506,
      "personal": 2507,
      "gen": 2508,
      "countries": 2509,
      "showed": 2510,
      "rael": 2511,
      "Mark": 2512,
      "victims": 2513,
      "soon": 2514,
      "',": 2515,
      "plans": 2516,
      "According": 2517,
      "blood": 2518,
      "fear": 2519,
      "Now": 2520,
      "Israel": 2521,
      "huge": 2522,
      "els": 2523,
      "70": 2524,
      "study": 2525,
      "nearly": 2526,
      "felt": 2527,
      "Islam": 2528,
      "caused": 2529,
      "anned": 2530,
      "enjo": 2531,
      "looked": 2532,
      "compla": 2533,
      "ata": 2534,
      "guilty": 2535,
      "simp": 2536,
      "Democr": 2537,
      "allegedly": 2538,
      "surv": 2539,
      "Afgh": 2540,
      "2009": 2541,
      "ners": 2542,
      "contact": 2543,
      "Last": 2544,
      "problem": 2545,
      "perfor": 2546,
      "recently": 2547,
      "ker": 2548,
      "track": 2549,
      "Ad": 2550,
      "Prem": 2551,
      "mal": 2552,
      "judge": 2553,
      "whose": 2554,
      "ona": 2555,
      "happy": 2556,
      "contribut": 2557,
      "Em": 2558,
      "makes": 2559,
      "understand": 2560,
      "Daily": 2561,
      "Lab": 2562,
      "Pl": 2563,
      "cel": 2564,
      "Camer": 2565,
      "500": 2566,
      "enced": 2567,
      "sn": 2568,
      "member": 2569,
      "decided": 2570,
      "depend": 2571,
      "civil": 2572,
      "race": 2573,
      "avy": 2574,
      "forces": 2575,
      "serious": 2576,
      "problems": 2577,
      "knew": 2578,
      "rock": 2579,
      "sexual": 2580,
      "pur": 2581,
      "pet": 2582,
      "flu": 2583,
      "aver": 2584,
      "similar": 2585,
      "atter": 2586,
      "plic": 2587,
      "erry": 2588,
      "ature": 2589,
      "bomb": 2590,
      "potential": 2591,
      "ither": 2592,
      "picture": 2593,
      "centre": 2594,
      "profess": 2595,
      "Ben": 2596,
      "Que": 2597,
      "sle": 2598,
      "orig": 2599,
      "suffered": 2600,
      "King": 2601,
      "Chris": 2602,
      "plane": 2603,
      "Afghan": 2604,
      "strugg": 2605,
      "expect": 2606,
      "running": 2607,
      "George": 2608,
      "door": 2609,
      "visit": 2610,
      "benef": 2611,
      "girls": 2612,
      "product": 2613,
      "Alex": 2614,
      "ference": 2615,
      "uries": 2616,
      "gas": 2617,
      "Rich": 2618,
      "hair": 2619,
      "brought": 2620,
      "games": 2621,
      "ulation": 2622,
      "mers": 2623,
      "cases": 2624,
      "means": 2625,
      "na": 2626,
      "box": 2627,
      "weet": 2628,
      "currently": 2629,
      "Mus": 2630,
      "Phil": 2631,
      "Angel": 2632,
      "stu": 2633,
      "uses": 2634,
      "FA": 2635,
      "Iran": 2636,
      "29": 2637,
      "posted": 2638,
      "ging": 2639,
      "lies": 2640,
      "include": 2641,
      "result": 2642,
      "private": 2643,
      "career": 2644,
      "immedi": 2645,
      "ida": 2646,
      "Mid": 2647,
      "quar": 2648,
      "draw": 2649,
      "Med": 2650,
      "access": 2651,
      "link": 2652,
      "charge": 2653,
      "failed": 2654,
      "France": 2655,
      "Spe": 2656,
      "violence": 2657,
      "lie": 2658,
      "king": 2659,
      "latest": 2660,
      "accident": 2661,
      "works": 2662,
      "ients": 2663,
      "safe": 2664,
      "init": 2665,
      "chance": 2666,
      "missing": 2667,
      "families": 2668,
      "weekend": 2669,
      "compan": 2670,
      "Christmas": 2671,
      "leading": 2672,
      "bas": 2673,
      "lawy": 2674,
      "Premier": 2675,
      "ops": 2676,
      "za": 2677,
      "pie": 2678,
      "ilt": 2679,
      "allowed": 2680,
      "remains": 2681,
      "sey": 2682,
      "cli": 2683,
      "anti": 2684,
      "chair": 2685,
      "impro": 2686,
      "bol": 2687,
      "ained": 2688,
      "ades": 2689,
      "ministr": 2690,
      "saf": 2691,
      "particular": 2692,
      ").": 2693,
      "ru": 2694,
      "attacks": 2695,
      "weap": 2696,
      "undred": 2697,
      "thousands": 2698,
      "Syria": 2699,
      "nine": 2700,
      "Two": 2701,
      "divid": 2702,
      "discovered": 2703,
      "gone": 2704,
      "wel": 2705,
      "needed": 2706,
      "danger": 2707,
      "loss": 2708,
      "2008": 2709,
      "gent": 2710,
      "suspect": 2711,
      "stor": 2712,
      "tele": 2713,
      "hood": 2714,
      "property": 2715,
      "everything": 2716,
      "meas": 2717,
      "style": 2718,
      "experience": 2719,
      "MP": 2720,
      "ald": 2721,
      "soldi": 2722,
      "App": 2723,
      "Rob": 2724,
      "Day": 2725,
      "avail": 2726,
      "married": 2727,
      "protect": 2728,
      "workers": 2729,
      "hearing": 2730,
      "opt": 2731,
      "pack": 2732,
      "conne": 2733,
      "themselves": 2734,
      "Mur": 2735,
      "Sha": 2736,
      "station": 2737,
      "zil": 2738,
      "anyone": 2739,
      "federal": 2740,
      "critic": 2741,
      "safety": 2742,
      "hands": 2743,
      "Cameron": 2744,
      "placed": 2745,
      "cir": 2746,
      "Sch": 2747,
      "Mex": 2748,
      "speak": 2749,
      "ounds": 2750,
      "killing": 2751,
      "cross": 2752,
      "seek": 2753,
      "ars": 2754,
      "fail": 2755,
      "calls": 2756,
      "wants": 2757,
      "Arsen": 2758,
      "range": 2759,
      "attemp": 2760,
      "publ": 2761,
      "shooting": 2762,
      "argu": 2763,
      "atives": 2764,
      "bing": 2765,
      "wat": 2766,
      "oid": 2767,
      "inv": 2768,
      "points": 2769,
      "hy": 2770,
      "Ken": 2771,
      "Not": 2772,
      "Flor": 2773,
      "leaving": 2774,
      "Pat": 2775,
      "develop": 2776,
      "cand": 2777,
      "account": 2778,
      "Smith": 2779,
      "above": 2780,
      "helped": 2781,
      "crime": 2782,
      "percent": 2783,
      "fast": 2784,
      "ov": 2785,
      "Africa": 2786,
      "equ": 2787,
      "stra": 2788,
      "sat": 2789,
      "arrived": 2790,
      "glo": 2791,
      "Brown": 2792,
      "non": 2793,
      "craft": 2794,
      "represent": 2795,
      "pun": 2796,
      "fem": 2797,
      "pan": 2798,
      "reach": 2799,
      "meeting": 2800,
      "BBC": 2801,
      "Russia": 2802,
      "rather": 2803,
      "indust": 2804,
      "witness": 2805,
      "research": 2806,
      "wer": 2807,
      "Red": 2808,
      "Au": 2809,
      "raised": 2810,
      "aging": 2811,
      "ease": 2812,
      "check": 2813,
      "comments": 2814,
      "Bel": 2815,
      "ots": 2816,
      "lect": 2817,
      "hur": 2818,
      "ese": 2819,
      "patients": 2820,
      "ks": 2821,
      "ij": 2822,
      "kept": 2823,
      "message": 2824,
      "driving": 2825,
      "asing": 2826,
      "idea": 2827,
      "election": 2828,
      "firm": 2829,
      "actually": 2830,
      "sell": 2831,
      "student": 2832,
      "Wo": 2833,
      "bag": 2834,
      "driver": 2835,
      "crash": 2836,
      "Wil": 2837,
      "lin": 2838,
      "available": 2839,
      "Lou": 2840,
      "45": 2841,
      "Thom": 2842,
      "project": 2843,
      "ky": 2844,
      "music": 2845,
      "abuse": 2846,
      "ount": 2847,
      "pract": 2848,
      "page": 2849,
      "lymp": 2850,
      "pping": 2851,
      "appoint": 2852,
      "rup": 2853,
      "EO": 2854,
      "looks": 2855,
      "ery": 2856,
      "itional": 2857,
      "Stre": 2858,
      "release": 2859,
      "sear": 2860,
      "train": 2861,
      "wall": 2862,
      "Mor": 2863,
      "ump": 2864,
      "lied": 2865,
      "confirmed": 2866,
      "issues": 2867,
      "attorney": 2868,
      "phy": 2869,
      "Olymp": 2870,
      "Du": 2871,
      "die": 2872,
      "injuries": 2873,
      "Bro": 2874,
      "surpr": 2875,
      "couldn": 2876,
      "discus": 2877,
      "Russian": 2878,
      "cit": 2879,
      "Vic": 2880,
      "wearing": 2881,
      "condu": 2882,
      "bra": 2883,
      "Royal": 2884,
      "Jer": 2885,
      "situation": 2886,
      "pul": 2887,
      "famous": 2888,
      "groups": 2889,
      "buy": 2890,
      "Americans": 2891,
      "assist": 2892,
      "images": 2893,
      "apan": 2894,
      "holiday": 2895,
      "Florida": 2896,
      "crow": 2897,
      "Uk": 2898,
      "mind": 2899,
      "everyone": 2900,
      "cru": 2901,
      "image": 2902,
      "needs": 2903,
      "Ke": 2904,
      "address": 2905,
      "Brazil": 2906,
      "inst": 2907,
      "Cent": 2908,
      "Mal": 2909,
      "35": 2910,
      "termin": 2911,
      "More": 2912,
      "High": 2913,
      "sister": 2914,
      "Prime": 2915,
      "capital": 2916,
      "sun": 2917,
      "terri": 2918,
      "Japan": 2919,
      "ari": 2920,
      "unity": 2921,
      "policy": 2922,
      "areas": 2923,
      "returned": 2924,
      "injured": 2925,
      "giving": 2926,
      "strict": 2927,
      "peri": 2928,
      "hotel": 2929,
      "International": 2930,
      "mob": 2931,
      "ashed": 2932,
      "services": 2933,
      "stage": 2934,
      "beaut": 2935,
      "educ": 2936,
      "Su": 2937,
      "School": 2938,
      "teacher": 2939,
      "else": 2940,
      "These": 2941,
      "English": 2942,
      "single": 2943,
      "audi": 2944,
      "smo": 2945,
      "elect": 2946,
      "Hill": 2947,
      "whole": 2948,
      "begin": 2949,
      "emerg": 2950,
      "Martin": 2951,
      "ify": 2952,
      "cannot": 2953,
      "longer": 2954,
      "yn": 2955,
      "sold": 2956,
      "Prince": 2957,
      "minister": 2958,
      "Hospital": 2959,
      "empt": 2960,
      "itor": 2961,
      "yed": 2962,
      "pressed": 2963,
      "sal": 2964,
      "store": 2965,
      "created": 2966,
      "street": 2967,
      "Labour": 2968,
      "orter": 2969,
      "omin": 2970,
      "Gl": 2971,
      "depart": 2972,
      "ady": 2973,
      "ancial": 2974,
      "drugs": 2975,
      "pressure": 2976,
      "ival": 2977,
      "surger": 2978,
      "roll": 2979,
      "operation": 2980,
      "matter": 2981,
      "boss": 2982,
      "fat": 2983,
      "senior": 2984,
      "deep": 2985,
      "vote": 2986,
      "Pak": 2987,
      "figh": 2988,
      "extra": 2989,
      "separ": 2990,
      "provide": 2991,
      "takes": 2992,
      "undreds": 2993,
      "counts": 2994,
      "Off": 2995,
      "ght": 2996,
      "charac": 2997,
      "winning": 2998,
      "caught": 2999,
      "opport": 3000,
      "cogn": 3001,
      "zing": 3002,
      "period": 3003,
      "owner": 3004,
      "ID": 3005,
      "People": 3006,
      "lands": 3007,
      "minute": 3008,
      "coach": 3009,
      "mental": 3010,
      "elder": 3011,
      "pictures": 3012,
      "Secretary": 3013,
      "ays": 3014,
      "Che": 3015,
      "quite": 3016,
      "Per": 3017,
      "80": 3018,
      "doctors": 3019,
      "Peter": 3020,
      "eye": 3021,
      "Street": 3022,
      "fair": 3023,
      "ows": 3024,
      "west": 3025,
      "vast": 3026,
      "challen": 3027,
      "injury": 3028,
      "comb": 3029,
      "Black": 3030,
      "trip": 3031,
      "individ": 3032,
      "beha": 3033,
      "Tex": 3034,
      "pil": 3035,
      "victory": 3036,
      "fighting": 3037,
      "Os": 3038,
      "ises": 3039,
      "ta": 3040,
      "kick": 3041,
      "Arsenal": 3042,
      "feet": 3043,
      "carried": 3044,
      "Tom": 3045,
      "signific": 3046,
      "cars": 3047,
      "arent": 3048,
      "built": 3049,
      "Scott": 3050,
      "letter": 3051,
      "criminal": 3052,
      "demand": 3053,
      "mist": 3054,
      "chers": 3055,
      "pose": 3056,
      "Cam": 3057,
      "bid": 3058,
      "Part": 3059,
      "however": 3060,
      "ert": 3061,
      "included": 3062,
      "foreign": 3063,
      "biggest": 3064,
      "cult": 3065,
      "total": 3066,
      "warned": 3067,
      "prevent": 3068,
      "continued": 3069,
      "launched": 3070,
      "clim": 3071,
      "region": 3072,
      "Hu": 3073,
      "sem": 3074,
      "refer": 3075,
      "jail": 3076,
      "administr": 3077,
      "table": 3078,
      "Germany": 3079,
      "immigr": 3080,
      "north": 3081,
      "inese": 3082,
      "homes": 3083,
      "pret": 3084,
      "offer": 3085,
      "Val": 3086,
      "bled": 3087,
      "speed": 3088,
      "sion": 3089,
      "states": 3090,
      "engers": 3091,
      "data": 3092,
      "Tur": 3093,
      "ny": 3094,
      "average": 3095,
      "actions": 3096,
      "31": 3097,
      "Bay": 3098,
      "Tra": 3099,
      "estim": 3100,
      "extreme": 3101,
      "ille": 3102,
      "omet": 3103,
      "ends": 3104,
      "performan": 3105,
      "weather": 3106,
      "agency": 3107,
      "east": 3108,
      "journal": 3109,
      "fill": 3110,
      "south": 3111,
      "repe": 3112,
      "ech": 3113,
      "impact": 3114,
      "surve": 3115,
      "sentence": 3116,
      "Australian": 3117,
      "common": 3118,
      "ashion": 3119,
      "ushed": 3120,
      "disease": 3121,
      "Sir": 3122,
      "assault": 3123,
      "emer": 3124,
      "regular": 3125,
      "vill": 3126,
      "direct": 3127,
      "ampions": 3128,
      "goals": 3129,
      "camera": 3130,
      "surgery": 3131,
      "changed": 3132,
      "users": 3133,
      "exam": 3134,
      "date": 3135,
      "brain": 3136,
      "respect": 3137,
      "redu": 3138,
      "phys": 3139,
      "general": 3140,
      "Texas": 3141,
      "mach": 3142,
      "loved": 3143,
      "iant": 3144,
      "price": 3145,
      "battle": 3146,
      "Muslim": 3147,
      "Chinese": 3148,
      "German": 3149,
      "NA": 3150,
      "Jud": 3151,
      "pm": 3152,
      "ti": 3153,
      "quickly": 3154,
      "ift": 3155,
      "request": 3156,
      "Offic": 3157,
      "bs": 3158,
      "scient": 3159,
      "90": 3160,
      "lines": 3161,
      "previous": 3162,
      "behavi": 3163,
      "hon": 3164,
      "although": 3165,
      "sil": 3166,
      "marriage": 3167,
      "Cong": 3168,
      "ander": 3169,
      "create": 3170,
      "instead": 3171,
      "berg": 3172,
      "repor": 3173,
      "2007": 3174,
      "entire": 3175,
      "recover": 3176,
      "source": 3177,
      "Apple": 3178,
      "tur": 3179,
      "share": 3180,
      "counter": 3181,
      "contract": 3182,
      "bridge": 3183,
      "ession": 3184,
      "prep": 3185,
      "occur": 3186,
      "appeal": 3187,
      "previously": 3188,
      "words": 3189,
      "believes": 3190,
      "fle": 3191,
      "lived": 3192,
      "Richard": 3193,
      "HS": 3194,
      "yan": 3195,
      "Government": 3196,
      "mill": 3197,
      "ization": 3198,
      "kids": 3199,
      "joined": 3200,
      "pregn": 3201,
      "financial": 3202,
      "initial": 3203,
      "fected": 3204,
      "significant": 3205,
      "pred": 3206,
      "executive": 3207,
      "female": 3208,
      "Ma": 3209,
      "identified": 3210,
      "ently": 3211,
      "Despite": 3212,
      "mult": 3213,
      "crew": 3214,
      "moving": 3215,
      "icide": 3216,
      "mot": 3217,
      "refused": 3218,
      "airport": 3219,
      "Associ": 3220,
      "appearance": 3221,
      "ara": 3222,
      "Williams": 3223,
      "recogn": 3224,
      "peace": 3225,
      "vehicle": 3226,
      "response": 3227,
      "cat": 3228,
      "immediately": 3229,
      "Port": 3230,
      "pit": 3231,
      "parts": 3232,
      "Sw": 3233,
      "insist": 3234,
      "inton": 3235,
      "vert": 3236,
      "opened": 3237,
      "Ber": 3238,
      "Health": 3239,
      "review": 3240,
      "penal": 3241,
      "ada": 3242,
      "photos": 3243,
      "Queen": 3244,
      "Afghanistan": 3245,
      "contributed": 3246,
      "emy": 3247,
      "passed": 3248,
      "rout": 3249,
      "attention": 3250,
      "ties": 3251,
      "ogle": 3252,
      "probab": 3253,
      "onto": 3254,
      "ado": 3255,
      "isn": 3256,
      "convicted": 3257,
      "tract": 3258,
      "gold": 3259,
      "rate": 3260,
      "inary": 3261,
      "Mill": 3262,
      "Mer": 3263,
      "SA": 3264,
      "Ano": 3265,
      "denied": 3266,
      "size": 3267,
      "demon": 3268,
      "ishing": 3269,
      "ples": 3270,
      "ample": 3271,
      "bes": 3272,
      "Scotland": 3273,
      "actor": 3274,
      "Congress": 3275,
      "technology": 3276,
      "ked": 3277,
      "brand": 3278,
      "damage": 3279,
      "cially": 3280,
      "broad": 3281,
      "floor": 3282,
      "residents": 3283,
      "companies": 3284,
      "Qu": 3285,
      "Sal": 3286,
      "burn": 3287,
      "Another": 3288,
      "ream": 3289,
      "employe": 3290,
      "cup": 3291,
      "spoke": 3292,
      "Council": 3293,
      "conditions": 3294,
      "candid": 3295,
      "rovers": 3296,
      "details": 3297,
      "title": 3298,
      "tom": 3299,
      "ctive": 3300,
      "Republican": 3301,
      "erson": 3302,
      "viron": 3303,
      "African": 3304,
      "scored": 3305,
      "partner": 3306,
      "shock": 3307,
      "prosecu": 3308,
      "hous": 3309,
      "Google": 3310,
      "followed": 3311,
      "Cap": 3312,
      "grad": 3313,
      "cris": 3314,
      "accept": 3315,
      "growing": 3316,
      "Los": 3317,
      "standing": 3318,
      "sof": 3319,
      "events": 3320,
      "tru": 3321,
      "Real": 3322,
      "controvers": 3323,
      "shown": 3324,
      "goes": 3325,
      "faces": 3326,
      "conference": 3327,
      "sleep": 3328,
      "Sto": 3329,
      "herself": 3330,
      "ga": 3331,
      "probably": 3332,
      "Rod": 3333,
      "plant": 3334,
      "block": 3335,
      "gar": 3336,
      "Jackson": 3337,
      "questions": 3338,
      "aim": 3339,
      "restaur": 3340,
      "poor": 3341,
      "avoid": 3342,
      "champion": 3343,
      "itors": 3344,
      "Many": 3345,
      "compu": 3346,
      "focus": 3347,
      "missed": 3348,
      "ably": 3349,
      "served": 3350,
      "agreed": 3351,
      "gets": 3352,
      "Ron": 3353,
      "stone": 3354,
      "32": 3355,
      "published": 3356,
      "rare": 3357,
      "clean": 3358,
      "consider": 3359,
      "wedding": 3360,
      "tem": 3361,
      "noon": 3362,
      "contain": 3363,
      "aves": 3364,
      "load": 3365,
      "Johnson": 3366,
      "economic": 3367,
      "uni": 3368,
      "offered": 3369,
      "either": 3370,
      "towards": 3371,
      "troops": 3372,
      "lack": 3373,
      "border": 3374,
      "newsp": 3375,
      "rupt": 3376,
      "ural": 3377,
      "photograph": 3378,
      "Every": 3379,
      "vent": 3380,
      "owned": 3381,
      "opening": 3382,
      "passengers": 3383,
      "hest": 3384,
      "rang": 3385,
      "oil": 3386,
      "industry": 3387,
      "aring": 3388,
      "skin": 3389,
      "raise": 3390,
      "card": 3391,
      "sou": 3392,
      "ike": 3393,
      "launch": 3394,
      "Office": 3395,
      "cep": 3396,
      "tweet": 3397,
      "II": 3398,
      "Korea": 3399,
      "changes": 3400,
      "deliver": 3401,
      "iled": 3402,
      "results": 3403,
      "customers": 3404,
      "spending": 3405,
      "emergency": 3406,
      "alone": 3407,
      "closed": 3408,
      "Clinton": 3409,
      "apparent": 3410,
      "happen": 3411,
      "lose": 3412,
      "allegations": 3413,
      "finally": 3414,
      "hundreds": 3415,
      "appears": 3416,
      "ancy": 3417,
      "signed": 3418,
      "Dani": 3419,
      "ini": 3420,
      "perfect": 3421,
      "seems": 3422,
      "remember": 3423,
      "Jones": 3424,
      "increase": 3425,
      "espe": 3426,
      "ender": 3427,
      "encour": 3428,
      "especially": 3429,
      "din": 3430,
      "aware": 3431,
      "energy": 3432,
      "laugh": 3433,
      "natur": 3434,
      "enger": 3435,
      "ories": 3436,
      "Madrid": 3437,
      "snow": 3438,
      "stopped": 3439,
      "demonstr": 3440,
      "base": 3441,
      "boys": 3442,
      "olf": 3443,
      "advis": 3444,
      "amount": 3445,
      "33": 3446,
      "Carol": 3447,
      "India": 3448,
      "diag": 3449,
      "Other": 3450,
      "calling": 3451,
      "nu": 3452,
      "indic": 3453,
      "simply": 3454,
      "broke": 3455,
      "drive": 3456,
      "ceed": 3457,
      "jury": 3458,
      "document": 3459,
      "lu": 3460,
      "dangerous": 3461,
      "treated": 3462,
      "197": 3463,
      "weapons": 3464,
      "tran": 3465,
      "iger": 3466,
      "engine": 3467,
      "fan": 3468,
      "riff": 3469,
      "forts": 3470,
      "ively": 3471,
      "adding": 3472,
      "iving": 3473,
      "emot": 3474,
      "speech": 3475,
      "Former": 3476,
      "sense": 3477,
      "figures": 3478,
      "Louis": 3479,
      "bon": 3480,
      "touch": 3481,
      "Mexico": 3482,
      "sec": 3483,
      "cing": 3484,
      "independ": 3485,
      "Bur": 3486,
      "irt": 3487,
      "eyes": 3488,
      "Far": 3489,
      "costs": 3490,
      "Mag": 3491,
      "via": 3492,
      "Center": 3493,
      "Sim": 3494,
      "mater": 3495,
      "fashion": 3496,
      "lawyer": 3497,
      "surround": 3498,
      "aed": 3499,
      "tori": 3500,
      "ordered": 3501,
      "secret": 3502,
      "zer": 3503,
      "irst": 3504,
      "largest": 3505,
      "reportedly": 3506,
      "Of": 3507,
      "ension": 3508,
      "ption": 3509,
      "trust": 3510,
      "considered": 3511,
      "Dis": 3512,
      "iet": 3513,
      "Law": 3514,
      "Kim": 3515,
      "intro": 3516,
      "iction": 3517,
      "Angeles": 3518,
      "ote": 3519,
      "fine": 3520,
      "coast": 3521,
      "diagno": 3522,
      "council": 3523,
      "soldiers": 3524,
      "Gener": 3525,
      "bought": 3526,
      "cash": 3527,
      "moder": 3528,
      "igence": 3529,
      "defin": 3530,
      "challenge": 3531,
      "showing": 3532,
      "sequ": 3533,
      "Sand": 3534,
      "written": 3535,
      "rise": 3536,
      "afternoon": 3537,
      "trou": 3538,
      "rey": 3539,
      "designed": 3540,
      "exc": 3541,
      "sens": 3542,
      "economy": 3543,
      "Our": 3544,
      "gain": 3545,
      "Def": 3546,
      "cohol": 3547,
      "Wales": 3548,
      "cue": 3549,
      "citiz": 3550,
      "Spain": 3551,
      "armed": 3552,
      "aud": 3553,
      "captain": 3554,
      "performance": 3555,
      "tick": 3556,
      "Egy": 3557,
      "Jose": 3558,
      "fa": 3559,
      "Even": 3560,
      "word": 3561,
      "During": 3562,
      "istic": 3563,
      "striker": 3564,
      "introdu": 3565,
      "bass": 3566,
      "uty": 3567,
      "middle": 3568,
      "spect": 3569,
      "poll": 3570,
      "normal": 3571,
      "warning": 3572,
      "antic": 3573,
      "Egypt": 3574,
      "cred": 3575,
      "nearby": 3576,
      "Online": 3577,
      "hero": 3578,
      "Robert": 3579,
      "attempt": 3580,
      "Mel": 3581,
      "effort": 3582,
      "lift": 3583,
      "experts": 3584,
      "broken": 3585,
      "issued": 3586,
      "spread": 3587,
      "related": 3588,
      "girlfriend": 3589,
      "rief": 3590,
      "atory": 3591,
      "ometimes": 3592,
      "evening": 3593,
      "Bill": 3594,
      "La": 3595,
      "alter": 3596,
      "wis": 3597,
      "dete": 3598,
      "aked": 3599,
      "seeing": 3600,
      "emerged": 3601,
      "Author": 3602,
      "quality": 3603,
      "efforts": 3604,
      "schools": 3605,
      "Gar": 3606,
      "television": 3607,
      "ISIS": 3608,
      "character": 3609,
      "aches": 3610,
      "Mary": 3611,
      "adium": 3612,
      "Sport": 3613,
      "Green": 3614,
      "church": 3615,
      "responsible": 3616,
      "concerns": 3617,
      "ountain": 3618,
      "Sur": 3619,
      "unable": 3620,
      "crisis": 3621,
      "arms": 3622,
      "squad": 3623,
      "anda": 3624,
      "animals": 3625,
      "300": 3626,
      "han": 3627,
      "36": 3628,
      "agement": 3629,
      "temper": 3630,
      "bey": 3631,
      "global": 3632,
      "wait": 3633,
      "wouldn": 3634,
      "agre": 3635,
      "true": 3636,
      "ems": 3637,
      "mobile": 3638,
      "possib": 3639,
      "rol": 3640,
      "Andrew": 3641,
      "lower": 3642,
      "charity": 3643,
      "formed": 3644,
      "owners": 3645,
      "rob": 3646,
      "twice": 3647,
      "Fed": 3648,
      "terms": 3649,
      "figure": 3650,
      "rules": 3651,
      "award": 3652,
      "lap": 3653,
      "insur": 3654,
      "spend": 3655,
      "zy": 3656,
      "uk": 3657,
      "save": 3658,
      "suffering": 3659,
      "favour": 3660,
      "Lee": 3661,
      "2006": 3662,
      "eventually": 3663,
      "cop": 3664,
      "Arab": 3665,
      "opportunity": 3666,
      "Van": 3667,
      "stab": 3668,
      "Thomas": 3669,
      "liament": 3670,
      "illa": 3671,
      "necess": 3672,
      "center": 3673,
      "typ": 3674,
      "wish": 3675,
      "orters": 3676,
      "aming": 3677,
      "completely": 3678,
      "ipp": 3679,
      "comfort": 3680,
      "iful": 3681,
      "34": 3682,
      "higher": 3683,
      "Paris": 3684,
      "perform": 3685,
      "Times": 3686,
      "pher": 3687,
      "ears": 3688,
      "fellow": 3689,
      "example": 3690,
      "administration": 3691,
      "jected": 3692,
      "mates": 3693,
      "telling": 3694,
      "flood": 3695,
      "particularly": 3696,
      "successful": 3697,
      "relig": 3698,
      "Ass": 3699,
      "inger": 3700,
      "lay": 3701,
      "animal": 3702,
      "alcohol": 3703,
      "Italy": 3704,
      "feed": 3705,
      "managed": 3706,
      "Reporter": 3707,
      "movie": 3708,
      "neighbor": 3709,
      "iny": 3710,
      "jailed": 3711,
      "push": 3712,
      "Today": 3713,
      "va": 3714,
      "piece": 3715,
      "eper": 3716,
      "Daniel": 3717,
      "ils": 3718,
      "Islamic": 3719,
      "improve": 3720,
      "Wood": 3721,
      "psy": 3722,
      "heavy": 3723,
      "anta": 3724,
      "holding": 3725,
      "aircraft": 3726,
      "meant": 3727,
      "increasing": 3728,
      "estab": 3729,
      "central": 3730,
      "talking": 3731,
      "determin": 3732,
      "gard": 3733,
      "NHS": 3734,
      "lock": 3735,
      "levels": 3736,
      "coll": 3737,
      "influ": 3738,
      "blue": 3739,
      "ram": 3740,
      "ilities": 3741,
      "umb": 3742,
      "bud": 3743,
      "First": 3744,
      "sports": 3745,
      "jobs": 3746,
      "phen": 3747,
      "itche": 3748,
      "anish": 3749,
      "quir": 3750,
      "196": 3751,
      "removed": 3752,
      "asking": 3753,
      "eat": 3754,
      "Pakistan": 3755,
      "newspaper": 3756,
      "prov": 3757,
      "severe": 3758,
      "sentenced": 3759,
      "airs": 3760,
      "justice": 3761,
      "exact": 3762,
      "attacked": 3763,
      "Army": 3764,
      "screen": 3765,
      "send": 3766,
      "fired": 3767,
      "environ": 3768,
      "Vir": 3769,
      "God": 3770,
      "Atl": 3771,
      "streets": 3772,
      "Bal": 3773,
      "owing": 3774,
      "37": 3775,
      "Although": 3776,
      "Justice": 3777,
      "NE": 3778,
      "inson": 3779,
      "gency": 3780,
      "ador": 3781,
      "penalty": 3782,
      "ensure": 3783,
      "Ash": 3784,
      "Senate": 3785,
      "resear": 3786,
      "Harry": 3787,
      "pulled": 3788,
      "wonder": 3789,
      "BI": 3790,
      "McC": 3791,
      "unch": 3792,
      "azine": 3793,
      "conduct": 3794,
      "carrying": 3795,
      "straight": 3796,
      "gang": 3797,
      "General": 3798,
      "struck": 3799,
      "fighters": 3800,
      "defense": 3801,
      "bodies": 3802,
      "stic": 3803,
      "Then": 3804,
      "fourth": 3805,
      "stant": 3806,
      "stitute": 3807,
      "footage": 3808,
      "sites": 3809,
      "ampton": 3810,
      "intell": 3811,
      "communic": 3812,
      "mate": 3813,
      "hopes": 3814,
      "iced": 3815,
      "nuclear": 3816,
      "Sar": 3817,
      "circ": 3818,
      "stars": 3819,
      "deaths": 3820,
      "respond": 3821,
      "Syrian": 3822,
      "wound": 3823,
      "solute": 3824,
      "Both": 3825,
      "isters": 3826,
      "bly": 3827,
      "includes": 3828,
      "angu": 3829,
      "atures": 3830,
      "prosecut": 3831,
      "Det": 3832,
      "doz": 3833,
      "anks": 3834,
      "Watch": 3835,
      "wild": 3836,
      "quarter": 3837,
      "associ": 3838,
      "throughout": 3839,
      "waiting": 3840,
      "Camp": 3841,
      "ucky": 3842,
      "akes": 3843,
      "glass": 3844,
      "remark": 3845,
      "clus": 3846,
      "paper": 3847,
      "crowd": 3848,
      "material": 3849,
      "regard": 3850,
      "accep": 3851,
      "attend": 3852,
      "walking": 3853,
      "burg": 3854,
      "education": 3855,
      "incredi": 3856,
      "song": 3857,
      "join": 3858,
      "reached": 3859,
      "suicide": 3860,
      "numbers": 3861,
      "exist": 3862,
      "supporters": 3863,
      "storm": 3864,
      "repeated": 3865,
      "dig": 3866,
      "omen": 3867,
      "ski": 3868,
      "pup": 3869,
      "text": 3870,
      "doll": 3871,
      "Under": 3872,
      "dream": 3873,
      "dropped": 3874,
      "Crown": 3875,
      "wealth": 3876,
      "planned": 3877,
      "Tal": 3878,
      "dogs": 3879,
      "ider": 3880,
      "Jon": 3881,
      "Judge": 3882,
      "struction": 3883,
      "natural": 3884,
      "Mat": 3885,
      "older": 3886,
      "pretty": 3887,
      "var": 3888,
      "Adam": 3889,
      "laws": 3890,
      "transfer": 3891,
      "itself": 3892,
      "vor": 3893,
      "places": 3894,
      "version": 3895,
      "unk": 3896,
      "competition": 3897,
      "Super": 3898,
      "destro": 3899,
      "Franc": 3900,
      "Hel": 3901,
      "bedroom": 3902,
      "dad": 3903,
      "concerned": 3904,
      "documents": 3905,
      "millions": 3906,
      "Act": 3907,
      "hib": 3908,
      "oph": 3909,
      "ience": 3910,
      "Star": 3911,
      "Union": 3912,
      "Since": 3913,
      "38": 3914,
      "sale": 3915,
      "boat": 3916,
      "boo": 3917,
      "stitut": 3918,
      "attract": 3919,
      "mouth": 3920,
      "century": 3921,
      "fee": 3922,
      "rape": 3923,
      "ours": 3924,
      "feeling": 3925,
      "sort": 3926,
      "population": 3927,
      "oul": 3928,
      "guest": 3929,
      "reporters": 3930,
      "selling": 3931,
      "doub": 3932,
      "worst": 3933,
      "Fam": 3934,
      "sor": 3935,
      "messages": 3936,
      "highest": 3937,
      "positive": 3938,
      "Syd": 3939,
      "spl": 3940,
      "Most": 3941,
      "prim": 3942,
      "44": 3943,
      "ctors": 3944,
      "owers": 3945,
      "apolog": 3946,
      "Good": 3947,
      "products": 3948,
      "decades": 3949,
      "green": 3950,
      "display": 3951,
      "faced": 3952,
      "cerem": 3953,
      "Barcel": 3954,
      "nel": 3955,
      "Francis": 3956,
      "easy": 3957,
      "shut": 3958,
      "Sydney": 3959,
      "suggested": 3960,
      "reli": 3961,
      "Barcelona": 3962,
      "Jim": 3963,
      "network": 3964,
      "Earth": 3965,
      "resh": 3966,
      "sales": 3967,
      "raine": 3968,
      "winner": 3969,
      "type": 3970,
      "rif": 3971,
      "thes": 3972,
      "Ital": 3973,
      "inno": 3974,
      "prior": 3975,
      "Old": 3976,
      "haps": 3977,
      "aste": 3978,
      "benefits": 3979,
      "usual": 3980,
      "planning": 3981,
      "plead": 3982,
      "bility": 3983,
      "sche": 3984,
      "otel": 3985,
      "Champions": 3986,
      "majority": 3987,
      "ba": 3988,
      "swe": 3989,
      "computer": 3990,
      "double": 3991,
      "fly": 3992,
      "collection": 3993,
      "occas": 3994,
      "names": 3995,
      "Security": 3996,
      "original": 3997,
      "iple": 3998,
      "55": 3999,
      "?'": 4000,
      "istry": 4001,
      "gay": 4002,
      "apartment": 4003,
      "Bor": 4004,
      "aine": 4005,
      "Den": 4006,
      "helping": 4007,
      "captured": 4008,
      "Lord": 4009,
      "appropri": 4010,
      "absolute": 4011,
      "dark": 4012,
      "ya": 4013,
      "healthy": 4014,
      "hun": 4015,
      "slow": 4016,
      "47": 4017,
      "castle": 4018,
      "approach": 4019,
      "illegal": 4020,
      "48": 4021,
      "iev": 4022,
      "gry": 4023,
      "reform": 4024,
      "strike": 4025,
      "progress": 4026,
      "presidential": 4027,
      "guard": 4028,
      "opposition": 4029,
      "claiming": 4030,
      "Service": 4031,
      "Pri": 4032,
      "err": 4033,
      "talks": 4034,
      "island": 4035,
      "useum": 4036,
      "Barack": 4037,
      "abor": 4038,
      "scor": 4039,
      "Virgin": 4040,
      "Met": 4041,
      "hid": 4042,
      "jum": 4043,
      "handed": 4044,
      "lic": 4045,
      "becoming": 4046,
      "nes": 4047,
      "flag": 4048,
      "myself": 4049,
      "opin": 4050,
      "struct": 4051,
      "rend": 4052,
      "sky": 4053,
      "affected": 4054,
      "2005": 4055,
      "hang": 4056,
      "chairman": 4057,
      "teams": 4058,
      "Middle": 4059,
      "Steve": 4060,
      "hum": 4061,
      "Ram": 4062,
      "deg": 4063,
      "Bir": 4064,
      "seat": 4065,
      "male": 4066,
      "uled": 4067,
      "whom": 4068,
      "ips": 4069,
      "watching": 4070,
      "ights": 4071,
      "alongside": 4072,
      "Child": 4073,
      "massive": 4074,
      "39": 4075,
      "stress": 4076,
      "Gra": 4077,
      "ield": 4078,
      "compared": 4079,
      "shared": 4080,
      "beautiful": 4081,
      "Party": 4082,
      "Resear": 4083,
      "devast": 4084,
      "Italian": 4085,
      "usually": 4086,
      "Wal": 4087,
      "symp": 4088,
      "bury": 4089,
      "Republicans": 4090,
      "EU": 4091,
      "mir": 4092,
      "era": 4093,
      "Frank": 4094,
      "freed": 4095,
      "Kel": 4096,
      "development": 4097,
      "icles": 4098,
      "acked": 4099,
      "degree": 4100,
      "veter": 4101,
      "FBI": 4102,
      "gg": 4103,
      "VID": 4104,
      "ustr": 4105,
      "ements": 4106,
      "Bu": 4107,
      "Victo": 4108,
      "comed": 4109,
      "records": 4110,
      "conserv": 4111,
      "insp": 4112,
      "isl": 4113,
      "confl": 4114,
      "patient": 4115,
      "Nick": 4116,
      "filed": 4117,
      "facing": 4118,
      "oked": 4119,
      "neighbour": 4120,
      "smart": 4121,
      "iment": 4122,
      "subject": 4123,
      "anch": 4124,
      "Bush": 4125,
      "features": 4126,
      "erc": 4127,
      "Argent": 4128,
      "maintain": 4129,
      "swim": 4130,
      "Sus": 4131,
      "learn": 4132,
      "debate": 4133,
      "professional": 4134,
      "stick": 4135,
      "Ga": 4136,
      "ka": 4137,
      "99": 4138,
      "42": 4139,
      "Gold": 4140,
      "VIDEO": 4141,
      "ruled": 4142,
      "Mean": 4143,
      "continues": 4144,
      "Ve": 4145,
      "starting": 4146,
      "fielder": 4147,
      "ande": 4148,
      "fied": 4149,
      "From": 4150,
      "linked": 4151,
      "Post": 4152,
      "custody": 4153,
      "tourn": 4154,
      "losing": 4155,
      "Big": 4156,
      "spark": 4157,
      "Ryan": 4158,
      "explained": 4159,
      "restaurant": 4160,
      "Commission": 4161,
      "afford": 4162,
      "defeat": 4163,
      "bow": 4164,
      "Kar": 4165,
      "Tim": 4166,
      "rev": 4167,
      "Holly": 4168,
      "fant": 4169,
      "Their": 4170,
      "Chief": 4171,
      "Charles": 4172,
      "insisted": 4173,
      "nur": 4174,
      "league": 4175,
      "Prof": 4176,
      "Georg": 4177,
      "magazine": 4178,
      "Web": 4179,
      "certainly": 4180,
      "sound": 4181,
      "Three": 4182,
      "pression": 4183,
      "seemed": 4184,
      "unders": 4185,
      "active": 4186,
      "tack": 4187,
      "extremely": 4188,
      "Murray": 4189,
      "Spanish": 4190,
      "ological": 4191,
      "Dar": 4192,
      "fare": 4193,
      "Oh": 4194,
      "committed": 4195,
      "reasons": 4196,
      "fish": 4197,
      "stren": 4198,
      "putting": 4199,
      "lif": 4200,
      "rich": 4201,
      "beach": 4202,
      "Comm": 4203,
      "Tay": 4204,
      "CC": 4205,
      "Olympic": 4206,
      "modern": 4207,
      "Ari": 4208,
      "thinking": 4209,
      "ateg": 4210,
      "choice": 4211,
      "Wat": 4212,
      "medic": 4213,
      "MailOnline": 4214,
      "andal": 4215,
      "ito": 4216,
      "dict": 4217,
      "device": 4218,
      "advert": 4219,
      "department": 4220,
      "Cur": 4221,
      "particip": 4222,
      "Del": 4223,
      "specific": 4224,
      "stun": 4225,
      "minor": 4226,
      "Ukraine": 4227,
      "bath": 4228,
      "tests": 4229,
      "truck": 4230,
      "receive": 4231,
      "yl": 4232,
      "histor": 4233,
      "rebel": 4234,
      "internet": 4235,
      "breaking": 4236,
      "’,": 4237,
      "eating": 4238,
      "ville": 4239,
      "Tri": 4240,
      "below": 4241,
      "400": 4242,
      "sometimes": 4243,
      "Romney": 4244,
      "auto": 4245,
      "attended": 4246,
      "shel": 4247,
      "provided": 4248,
      "causing": 4249,
      "Fin": 4250,
      "Hen": 4251,
      "teenager": 4252,
      "Meanwhile": 4253,
      "langu": 4254,
      "violent": 4255,
      "ses": 4256,
      "affect": 4257,
      "Mac": 4258,
      "clearly": 4259,
      "san": 4260,
      "native": 4261,
      "signs": 4262,
      "runs": 4263,
      "drop": 4264,
      "cold": 4265,
      "scr": 4266,
      "Christian": 4267,
      "sick": 4268,
      "walked": 4269,
      "investigators": 4270,
      "bola": 4271,
      "rep": 4272,
      "discover": 4273,
      "village": 4274,
      "announce": 4275,
      "ape": 4276,
      "proud": 4277,
      "Qaed": 4278,
      "Qaeda": 4279,
      "expressed": 4280,
      "rig": 4281,
      "estimated": 4282,
      "serving": 4283,
      "flat": 4284,
      "Rad": 4285,
      "spotted": 4286,
      "Ever": 4287,
      "ission": 4288,
      "kno": 4289,
      "Association": 4290,
      "origin": 4291,
      "pled": 4292,
      "sters": 4293,
      "phones": 4294,
      "suspic": 4295,
      "radio": 4296,
      "dome": 4297,
      "brief": 4298,
      "intelligence": 4299,
      "neck": 4300,
      "Sci": 4301,
      "boyfriend": 4302,
      "sets": 4303,
      "views": 4304,
      "pregnant": 4305,
      "Colle": 4306,
      "streng": 4307,
      "rick": 4308,
      "suspended": 4309,
      "Som": 4310,
      ".,": 4311,
      "Str": 4312,
      "andon": 4313,
      "Open": 4314,
      "Shar": 4315,
      "stag": 4316,
      "cities": 4317,
      "traffic": 4318,
      "46": 4319,
      "lets": 4320,
      "goti": 4321,
      "scientists": 4322,
      "xim": 4323,
      "window": 4324,
      "tough": 4325,
      "Rober": 4326,
      "mous": 4327,
      "visited": 4328,
      "acqu": 4329,
      "enforce": 4330,
      "agers": 4331,
      "Palace": 4332,
      "giant": 4333,
      "lad": 4334,
      "Ire": 4335,
      "serve": 4336,
      "breast": 4337,
      "Over": 4338,
      "RA": 4339,
      "Ebola": 4340,
      "Dun": 4341,
      "midfielder": 4342,
      "Press": 4343,
      "immigration": 4344,
      "flying": 4345,
      "college": 4346,
      "keeper": 4347,
      "fortun": 4348,
      "Church": 4349,
      "2004": 4350,
      "controll": 4351,
      "therap": 4352,
      "psych": 4353,
      "exerc": 4354,
      "resol": 4355,
      "49": 4356,
      "zz": 4357,
      "ires": 4358,
      "Sil": 4359,
      "apparently": 4360,
      "Joe": 4361,
      "hose": 4362,
      "Hall": 4363,
      "rescue": 4364,
      "items": 4365,
      "legisl": 4366,
      "Fore": 4367,
      "pin": 4368,
      "Ty": 4369,
      "igan": 4370,
      "?\"": 4371,
      "Boston": 4372,
      "govern": 4373,
      "annual": 4374,
      "annel": 4375,
      "reality": 4376,
      "prices": 4377,
      "Home": 4378,
      "individual": 4379,
      "occurred": 4380,
      "rug": 4381,
      "decade": 4382,
      "Bob": 4383,
      "Tot": 4384,
      "pleaded": 4385,
      "banned": 4386,
      "neg": 4387,
      "clin": 4388,
      "fuel": 4389,
      "negoti": 4390,
      "Speaking": 4391,
      "Kate": 4392,
      "developed": 4393,
      "knows": 4394,
      "ceremony": 4395,
      "growth": 4396,
      "utch": 4397,
      "object": 4398,
      "beyond": 4399,
      "tt": 4400,
      "iles": 4401,
      "43": 4402,
      "practice": 4403,
      "Grand": 4404,
      "increased": 4405,
      "oo": 4406,
      "enjoy": 4407,
      "lux": 4408,
      "bottom": 4409,
      "hurt": 4410,
      "protesters": 4411,
      "bling": 4412,
      "makers": 4413,
      "lights": 4414,
      "loan": 4415,
      "ledge": 4416,
      "sta": 4417,
      "researchers": 4418,
      "sight": 4419,
      "Newcastle": 4420,
      "ena": 4421,
      "operations": 4422,
      "CA": 4423,
      "terrorist": 4424,
      "worker": 4425,
      "younger": 4426,
      "temp": 4427,
      "traditional": 4428,
      "inho": 4429,
      "recomm": 4430,
      "crimes": 4431,
      "Put": 4432,
      "75": 4433,
      "Bank": 4434,
      "Pet": 4435,
      "fal": 4436,
      "Ir": 4437,
      "Sol": 4438,
      "NEW": 4439,
      "watched": 4440,
      "Group": 4441,
      "alive": 4442,
      "attempted": 4443,
      "pounds": 4444,
      "arian": 4445,
      "pilot": 4446,
      "Mass": 4447,
      "Liby": 4448,
      "agreement": 4449,
      "answer": 4450,
      "rog": 4451,
      "bail": 4452,
      "mail": 4453,
      "parties": 4454,
      "sitting": 4455,
      "icop": 4456,
      "arily": 4457,
      "wing": 4458,
      "speaking": 4459,
      "Eli": 4460,
      "path": 4461,
      "Ev": 4462,
      "Im": 4463,
      "Kent": 4464,
      "favor": 4465,
      "bell": 4466,
      "len": 4467,
      "suspected": 4468,
      "politic": 4469,
      "employees": 4470,
      "diagnosed": 4471,
      "resign": 4472,
      "sad": 4473,
      "keeping": 4474,
      "fraud": 4475,
      "voters": 4476,
      "obv": 4477,
      "Democrats": 4478,
      "Brook": 4479,
      "sched": 4480,
      "deli": 4481,
      "discuss": 4482,
      "movement": 4483,
      "Taylor": 4484,
      "Brad": 4485,
      "value": 4486,
      "thy": 4487,
      "regime": 4488,
      "imag": 4489,
      "confident": 4490,
      "Island": 4491,
      "fest": 4492,
      "controversial": 4493,
      "amazing": 4494,
      "culture": 4495,
      "responsibility": 4496,
      "transport": 4497,
      "toms": 4498,
      "41": 4499,
      "fresh": 4500,
      "expert": 4501,
      "alys": 4502,
      "catch": 4503,
      "Wel": 4504,
      "spokeswoman": 4505,
      "Democratic": 4506,
      "mad": 4507,
      "investigating": 4508,
      "Tor": 4509,
      "Youn": 4510,
      "concern": 4511,
      "cul": 4512,
      "profile": 4513,
      "behaviour": 4514,
      "ulted": 4515,
      "birthday": 4516,
      "picked": 4517,
      "kins": 4518,
      "Indian": 4519,
      "River": 4520,
      "learned": 4521,
      "finding": 4522,
      "appropriate": 4523,
      "drinking": 4524,
      "tic": 4525,
      "mond": 4526,
      "cean": 4527,
      "conflict": 4528,
      "tournament": 4529,
      "ki": 4530,
      "initially": 4531,
      "hoping": 4532,
      "shirt": 4533,
      "society": 4534,
      "dram": 4535,
      "Ra": 4536,
      "accus": 4537,
      "setting": 4538,
      "ER": 4539,
      "Jersey": 4540,
      "powerful": 4541,
      "beginning": 4542,
      "convers": 4543,
      "Hor": 4544,
      "motor": 4545,
      "Ba": 4546,
      "Kat": 4547,
      "Cla": 4548,
      "holds": 4549,
      "seeking": 4550,
      "Mike": 4551,
      "purch": 4552,
      "ula": 4553,
      "disappoint": 4554,
      "steps": 4555,
      "physical": 4556,
      "ases": 4557,
      "aker": 4558,
      "scen": 4559,
      "remained": 4560,
      "pray": 4561,
      "university": 4562,
      "grab": 4563,
      "ruling": 4564,
      "Why": 4565,
      "ships": 4566,
      "Ha": 4567,
      "voice": 4568,
      "iPh": 4569,
      "challeng": 4570,
      "harm": 4571,
      "Wall": 4572,
      "venue": 4573,
      "meaning": 4574,
      "journey": 4575,
      "yes": 4576,
      "Wilson": 4577,
      "books": 4578,
      "Ireland": 4579,
      "prepared": 4580,
      "necessary": 4581,
      "finished": 4582,
      "proced": 4583,
      "Those": 4584,
      "heav": 4585,
      "divor": 4586,
      "Gree": 4587,
      "iling": 4588,
      "dom": 4589,
      "broadcast": 4590,
      "rough": 4591,
      "committee": 4592,
      "Ze": 4593,
      "angers": 4594,
      "tree": 4595,
      "Prose": 4596,
      "deser": 4597,
      "highly": 4598,
      "tenham": 4599,
      "mph": 4600,
      "gives": 4601,
      "Down": 4602,
      "Cast": 4603,
      "domestic": 4604,
      "Ter": 4605,
      "Chic": 4606,
      "determined": 4607,
      "mical": 4608,
      "print": 4609,
      "lement": 4610,
      "Ko": 4611,
      "threatened": 4612,
      "cab": 4613,
      "fix": 4614,
      "agic": 4615,
      "budget": 4616,
      "Commit": 4617,
      "promot": 4618,
      "Well": 4619,
      "Champion": 4620,
      "shots": 4621,
      "commission": 4622,
      "guy": 4623,
      "blog": 4624,
      "exactly": 4625,
      "propos": 4626,
      "hall": 4627,
      "ni": 4628,
      "':": 4629,
      "izing": 4630,
      "Moham": 4631,
      "singer": 4632,
      "shortly": 4633,
      "ordan": 4634,
      "uded": 4635,
      "bott": 4636,
      "Stephen": 4637,
      "Holl": 4638,
      "evin": 4639,
      "thered": 4640,
      "PR": 4641,
      "Korean": 4642,
      "Israeli": 4643,
      "activity": 4644,
      "protests": 4645,
      "doubt": 4646,
      "ola": 4647,
      "oking": 4648,
      "yle": 4649,
      "Penn": 4650,
      "rooms": 4651,
      "worse": 4652,
      "measures": 4653,
      "note": 4654,
      "absolutely": 4655,
      "mile": 4656,
      "consum": 4657,
      "reck": 4658,
      "separate": 4659,
      "Authorities": 4660,
      "Common": 4661,
      "Anth": 4662,
      "tweeted": 4663,
      "iel": 4664,
      "instru": 4665,
      "ented": 4666,
      "tribut": 4667,
      "agues": 4668,
      "ifth": 4669,
      "GO": 4670,
      "Western": 4671,
      "prosecutors": 4672,
      "Tony": 4673,
      "essed": 4674,
      "photographer": 4675,
      "Profess": 4676,
      "uals": 4677,
      "nar": 4678,
      "required": 4679,
      "complex": 4680,
      "daily": 4681,
      "ultim": 4682,
      "Coast": 4683,
      "Harris": 4684,
      "multiple": 4685,
      "ieve": 4686,
      "Sarah": 4687,
      "circum": 4688,
      "seconds": 4689,
      "raising": 4690,
      "Fire": 4691,
      "Invest": 4692,
      "mix": 4693,
      "Victoria": 4694,
      "scandal": 4695,
      "regul": 4696,
      "mountain": 4697,
      "cuts": 4698,
      "aries": 4699,
      "estate": 4700,
      "bum": 4701,
      "150": 4702,
      "unte": 4703,
      "haven": 4704,
      "memor": 4705,
      "location": 4706,
      "Cra": 4707,
      "Bla": 4708,
      "clothes": 4709,
      "Liber": 4710,
      "Distr": 4711,
      "hi": 4712,
      "Sky": 4713,
      "paying": 4714,
      "ders": 4715,
      "upon": 4716,
      "helicop": 4717,
      "addition": 4718,
      "Di": 4719,
      "gers": 4720,
      "stitution": 4721,
      "IA": 4722,
      "stock": 4723,
      "enforcement": 4724,
      "sons": 4725,
      "migr": 4726,
      "agedy": 4727,
      "critical": 4728,
      "da": 4729,
      "log": 4730,
      "user": 4731,
      "wick": 4732,
      "northern": 4733,
      "analy": 4734,
      "attle": 4735,
      "ites": 4736,
      "fection": 4737,
      "kidn": 4738,
      "fled": 4739,
      "commer": 4740,
      "expensive": 4741,
      "Georgia": 4742,
      "Games": 4743,
      "belong": 4744,
      "legs": 4745,
      "Anthony": 4746,
      "Up": 4747,
      "ett": 4748,
      "lyn": 4749,
      "actress": 4750,
      "District": 4751,
      "stands": 4752,
      "agree": 4753,
      "Great": 4754,
      "district": 4755,
      "LA": 4756,
      "breath": 4757,
      "offers": 4758,
      "Fox": 4759,
      "mes": 4760,
      "visitors": 4761,
      "Chicago": 4762,
      "oured": 4763,
      "ids": 4764,
      "ero": 4765,
      "desper": 4766,
      "ilton": 4767,
      "programme": 4768,
      "reser": 4769,
      "rank": 4770,
      "ota": 4771,
      "iban": 4772,
      "shocked": 4773,
      "sides": 4774,
      "simple": 4775,
      "65": 4776,
      "chemical": 4777,
      "prepar": 4778,
      "crack": 4779,
      "option": 4780,
      "rum": 4781,
      "Committee": 4782,
      "yell": 4783,
      "stances": 4784,
      "scheduled": 4785,
      "Hollywood": 4786,
      "anted": 4787,
      "wheel": 4788,
      "spoken": 4789,
      "artist": 4790,
      "consc": 4791,
      "Jordan": 4792,
      "Four": 4793,
      "!'": 4794,
      "Taliban": 4795,
      "Family": 4796,
      "Year": 4797,
      "recorded": 4798,
      "sole": 4799,
      "inspired": 4800,
      "defender": 4801,
      "Cal": 4802,
      "rates": 4803,
      "Dev": 4804,
      "rage": 4805,
      "duty": 4806,
      "ously": 4807,
      "08": 4808,
      "....": 4809,
      "require": 4810,
      "eless": 4811,
      "Way": 4812,
      "Lam": 4813,
      "Simon": 4814,
      "Read": 4815,
      "Haw": 4816,
      "vehicles": 4817,
      "isation": 4818,
      "plom": 4819,
      "pitch": 4820,
      "Carolina": 4821,
      "toward": 4822,
      "anced": 4823,
      "arez": 4824,
      "hat": 4825,
      "illness": 4826,
      "2003": 4827,
      "eth": 4828,
      "scoring": 4829,
      "sud": 4830,
      "Young": 4831,
      "language": 4832,
      "various": 4833,
      "cape": 4834,
      "sts": 4835,
      "beaten": 4836,
      "rule": 4837,
      "winter": 4838,
      "amid": 4839,
      "disput": 4840,
      "Tory": 4841,
      "defence": 4842,
      "itt": 4843,
      "seriously": 4844,
      "stories": 4845,
      "ashes": 4846,
      "acting": 4847,
      "Road": 4848,
      "aling": 4849,
      "applic": 4850,
      "willing": 4851,
      "ancing": 4852,
      "thanks": 4853,
      "warm": 4854,
      "southern": 4855,
      "organization": 4856,
      "false": 4857,
      "Gaal": 4858,
      "52": 4859,
      "acts": 4860,
      "hole": 4861,
      "ctic": 4862,
      "Here": 4863,
      "youth": 4864,
      "session": 4865,
      "eds": 4866,
      "inde": 4867,
      "confidence": 4868,
      "acted": 4869,
      "bound": 4870,
      "Palest": 4871,
      "Sa": 4872,
      "bin": 4873,
      "icon": 4874,
      "Andy": 4875,
      "Mess": 4876,
      "corre": 4877,
      "difference": 4878,
      "nature": 4879,
      "accom": 4880,
      "meth": 4881,
      "Tube": 4882,
      "Follow": 4883,
      "earth": 4884,
      "credit": 4885,
      "equip": 4886,
      "isto": 4887,
      "horse": 4888,
      "leng": 4889,
      "Canada": 4890,
      "perhaps": 4891,
      "virus": 4892,
      "produced": 4893,
      "sources": 4894,
      "matches": 4895,
      "survey": 4896,
      "encing": 4897,
      "agon": 4898,
      "partners": 4899,
      "cro": 4900,
      "Internet": 4901,
      "Earlier": 4902,
      "bear": 4903,
      "Mour": 4904,
      "trade": 4905,
      "Virginia": 4906,
      "Steven": 4907,
      "Die": 4908,
      "Lewis": 4909,
      "religious": 4910,
      "iana": 4911,
      "BA": 4912,
      "Jenn": 4913,
      "deput": 4914,
      "recovery": 4915,
      "insurance": 4916,
      "dia": 4917,
      "anny": 4918,
      "stret": 4919,
      "iPhone": 4920,
      "Airport": 4921,
      "unit": 4922,
      "prove": 4923,
      "videos": 4924,
      "Before": 4925,
      "rub": 4926,
      "bac": 4927,
      "army": 4928,
      "benefit": 4929,
      "athan": 4930,
      "relative": 4931,
      "Michel": 4932,
      "ON": 4933,
      "Gal": 4934,
      "prime": 4935,
      "remove": 4936,
      "cou": 4937,
      "apped": 4938,
      "citizens": 4939,
      "writing": 4940,
      "delay": 4941,
      "royal": 4942,
      "surface": 4943,
      "advice": 4944,
      "Play": 4945,
      "independent": 4946,
      "Beck": 4947,
      "ordinary": 4948,
      "skill": 4949,
      "filled": 4950,
      "Ferg": 4951,
      "encies": 4952,
      "rising": 4953,
      "responded": 4954,
      "IN": 4955,
      "lip": 4956,
      "batter": 4957,
      "Eric": 4958,
      "clubs": 4959,
      "mort": 4960,
      "repeatedly": 4961,
      "uge": 4962,
      "diet": 4963,
      "College": 4964,
      "eman": 4965,
      "trig": 4966,
      "Foot": 4967,
      "Gor": 4968,
      "cool": 4969,
      "Tottenham": 4970,
      "stuff": 4971,
      "Out": 4972,
      "shopping": 4973,
      "escape": 4974,
      "finish": 4975,
      "candidate": 4976,
      "cry": 4977,
      "sudden": 4978,
      "Club": 4979,
      "owed": 4980,
      "urning": 4981,
      "apart": 4982,
      "Cle": 4983,
      "Kevin": 4984,
      "soft": 4985,
      "ources": 4986,
      "production": 4987,
      "Matt": 4988,
      "equipment": 4989,
      "score": 4990,
      "Niger": 4991,
      "fifth": 4992,
      "agent": 4993,
      "abandon": 4994,
      "drivers": 4995,
      "beg": 4996,
      "article": 4997,
      "achieve": 4998,
      "garden": 4999,
      "IC": 5000,
      "inquir": 5001,
      "changing": 5002,
      "file": 5003,
      "leadership": 5004,
      "Foreign": 5005,
      "nice": 5006,
      "volunte": 5007,
      "promp": 5008,
      "MPs": 5009,
      "trouble": 5010,
      "Let": 5011,
      "answ": 5012,
      "allowing": 5013,
      "feature": 5014,
      "0s": 5015,
      "Investig": 5016,
      "ox": 5017,
      "hab": 5018,
      "advant": 5019,
      "Ox": 5020,
      "stood": 5021,
      "declared": 5022,
      "Found": 5023,
      "Net": 5024,
      "zone": 5025,
      "53": 5026,
      "ials": 5027,
      "mum": 5028,
      "freedom": 5029,
      "bles": 5030,
      "definite": 5031,
      "Sav": 5032,
      "iff": 5033,
      "failure": 5034,
      "Central": 5035,
      "kne": 5036,
      "Cambridge": 5037,
      "union": 5038,
      "directly": 5039,
      "fears": 5040,
      "diplom": 5041,
      "igg": 5042,
      "heat": 5043,
      "Donald": 5044,
      "pull": 5045,
      "Lau": 5046,
      "incess": 5047,
      "Maria": 5048,
      "Ali": 5049,
      "secretary": 5050,
      "funeral": 5051,
      "Es": 5052,
      "connection": 5053,
      "Human": 5054,
      "56": 5055,
      "blast": 5056,
      "limited": 5057,
      "Professor": 5058,
      "emotional": 5059,
      "OR": 5060,
      "content": 5061,
      "CEO": 5062,
      "Win": 5063,
      "IP": 5064,
      "ufact": 5065,
      "debut": 5066,
      "voted": 5067,
      "secure": 5068,
      "Jeff": 5069,
      "declined": 5070,
      "angry": 5071,
      "itation": 5072,
      "Sou": 5073,
      "infl": 5074,
      "wich": 5075,
      "obtain": 5076,
      "kin": 5077,
      "except": 5078,
      "iation": 5079,
      "therapy": 5080,
      "located": 5081,
      "Fergus": 5082,
      "Bol": 5083,
      "Attorney": 5084,
      "targeted": 5085,
      "settle": 5086,
      "scale": 5087,
      "electric": 5088,
      "ares": 5089,
      "2015": 5090,
      "lawsuit": 5091,
      "Squ": 5092,
      "tort": 5093,
      "Conserv": 5094,
      "chain": 5095,
      "ko": 5096,
      "decis": 5097,
      "celebrate": 5098,
      "BS": 5099,
      "dinner": 5100,
      "Dou": 5101,
      "barr": 5102,
      "wise": 5103,
      "bringing": 5104,
      "Kenned": 5105,
      "hasn": 5106,
      "gradu": 5107,
      "unique": 5108,
      "income": 5109,
      "Turkey": 5110,
      "ano": 5111,
      "ume": 5112,
      "faith": 5113,
      "contest": 5114,
      "nut": 5115,
      "minim": 5116,
      "isa": 5117,
      "colleagues": 5118,
      "measure": 5119,
      "54": 5120,
      "600": 5121,
      "2001": 5122,
      "pla": 5123,
      "ole": 5124,
      "corpor": 5125,
      "struggling": 5126,
      "Nations": 5127,
      "cused": 5128,
      "ulting": 5129,
      "wake": 5130,
      "cks": 5131,
      "wart": 5132,
      "status": 5133,
      "photographs": 5134,
      "sust": 5135,
      "acknow": 5136,
      "entered": 5137,
      "Instead": 5138,
      "dated": 5139,
      "Kelly": 5140,
      "emen": 5141,
      "accounts": 5142,
      "urged": 5143,
      "plast": 5144,
      "sive": 5145,
      "worried": 5146,
      "vul": 5147,
      "Stu": 5148,
      "Walk": 5149,
      "register": 5150,
      "houses": 5151,
      "alled": 5152,
      "oner": 5153,
      "lawyers": 5154,
      "57": 5155,
      "surprise": 5156,
      "thew": 5157,
      "politics": 5158,
      "Once": 5159,
      "map": 5160,
      "tells": 5161,
      "tum": 5162,
      "Ah": 5163,
      "ching": 5164,
      "spit": 5165,
      "Tha": 5166,
      "bulance": 5167,
      "Cha": 5168,
      "ensions": 5169,
      "Bow": 5170,
      "signing": 5171,
      "Ferguson": 5172,
      "Kennedy": 5173,
      "graph": 5174,
      "terrorism": 5175,
      "FI": 5176,
      "mention": 5177,
      "ification": 5178,
      "monitor": 5179,
      "Prosecu": 5180,
      "mic": 5181,
      "stal": 5182,
      "Palestin": 5183,
      "surge": 5184,
      "mingham": 5185,
      "wore": 5186,
      "YouTube": 5187,
      "Rog": 5188,
      "guests": 5189,
      "boost": 5190,
      "luxury": 5191,
      "adm": 5192,
      "gri": 5193,
      "Children": 5194,
      "chess": 5195,
      "split": 5196,
      "beth": 5197,
      "passenger": 5198,
      "Birmingham": 5199,
      "Fort": 5200,
      "flights": 5201,
      "posing": 5202,
      "Morgan": 5203,
      "amin": 5204,
      "sand": 5205,
      "dating": 5206,
      "Putin": 5207,
      "frequ": 5208,
      "Southampton": 5209,
      "offering": 5210,
      "Sea": 5211,
      "pir": 5212,
      "commercial": 5213,
      "Ray": 5214,
      "Jam": 5215,
      "reduce": 5216,
      "strikes": 5217,
      "poses": 5218,
      "ji": 5219,
      "mayor": 5220,
      "roy": 5221,
      "corner": 5222,
      "comfortable": 5223,
      "stern": 5224,
      "MA": 5225,
      "lucky": 5226,
      "supposed": 5227,
      "environment": 5228,
      "moon": 5229,
      "Long": 5230,
      "returning": 5231,
      "51": 5232,
      "Ariz": 5233,
      "devices": 5234,
      "moments": 5235,
      "alition": 5236,
      "militants": 5237,
      "Ver": 5238,
      "falling": 5239,
      "audience": 5240,
      "Pan": 5241,
      "Dor": 5242,
      "Roberts": 5243,
      "Supreme": 5244,
      "elections": 5245,
      "zed": 5246,
      "resort": 5247,
      "tragedy": 5248,
      "headed": 5249,
      "founder": 5250,
      "IV": 5251,
      "heads": 5252,
      "manufact": 5253,
      "GP": 5254,
      "Er": 5255,
      "introduced": 5256,
      "58": 5257,
      "grew": 5258,
      "turning": 5259,
      "confirm": 5260,
      "machine": 5261,
      "nie": 5262,
      "criticism": 5263,
      "impress": 5264,
      "carri": 5265,
      "seas": 5266,
      "Mir": 5267,
      "consist": 5268,
      "guns": 5269,
      "Tre": 5270,
      "questioned": 5271,
      "Dire": 5272,
      "nis": 5273,
      "buildings": 5274,
      "river": 5275,
      "assistant": 5276,
      "knife": 5277,
      "Ru": 5278,
      "cin": 5279,
      "awa": 5280,
      "2002": 5281,
      "Rooney": 5282,
      "saving": 5283,
      "lection": 5284,
      "completed": 5285,
      "ride": 5286,
      "limit": 5287,
      "sla": 5288,
      "concl": 5289,
      "proceed": 5290,
      "Scottish": 5291,
      "09": 5292,
      "Arizona": 5293,
      "250": 5294,
      "Beach": 5295,
      "daughters": 5296,
      "Agency": 5297,
      "iley": 5298,
      "embr": 5299,
      "quiet": 5300,
      "adults": 5301,
      "Japanese": 5302,
      "effects": 5303,
      "Bre": 5304,
      "Zeal": 5305,
      "Hay": 5306,
      "hack": 5307,
      "cha": 5308,
      "plot": 5309,
      "incredible": 5310,
      "gather": 5311,
      "revol": 5312,
      "crimin": 5313,
      "additional": 5314,
      "allows": 5315,
      "59": 5316,
      "sending": 5317,
      "gal": 5318,
      "condem": 5319,
      "apers": 5320,
      "Lin": 5321,
      "greater": 5322,
      "Sing": 5323,
      "FL": 5324,
      "doors": 5325,
      "domin": 5326,
      "dressed": 5327,
      "aggress": 5328,
      "stolen": 5329,
      "ye": 5330,
      "threatening": 5331,
      "protection": 5332,
      "email": 5333,
      "Lit": 5334,
      "teach": 5335,
      "800": 5336,
      "involve": 5337,
      "outs": 5338,
      "friendly": 5339,
      "rival": 5340,
      "background": 5341,
      "Work": 5342,
      "temperatures": 5343,
      "drawn": 5344,
      "constant": 5345,
      "aldo": 5346,
      "frustr": 5347,
      "favourite": 5348,
      "systems": 5349,
      "idel": 5350,
      "section": 5351,
      "beauty": 5352,
      "ABC": 5353,
      "atever": 5354,
      "Dam": 5355,
      "Zim": 5356,
      "tradition": 5357,
      "Miller": 5358,
      "receiving": 5359,
      "truth": 5360,
      "feels": 5361,
      "worry": 5362,
      "Cath": 5363,
      "stable": 5364,
      "Mun": 5365,
      "involving": 5366,
      "laps": 5367,
      "Ster": 5368,
      "retired": 5369,
      "Cub": 5370,
      "reaction": 5371,
      "jet": 5372,
      "generation": 5373,
      "Alan": 5374,
      "iding": 5375,
      "Men": 5376,
      "auction": 5377,
      "Navy": 5378,
      "wounded": 5379,
      "decide": 5380,
      "07": 5381,
      "DNA": 5382,
      "pa": 5383,
      "agents": 5384,
      "suspects": 5385,
      "bright": 5386,
      "Argentina": 5387,
      "standards": 5388,
      "beating": 5389,
      "weapon": 5390,
      "threats": 5391,
      "rescu": 5392,
      "fatal": 5393,
      "kil": 5394,
      "Mu": 5395,
      "2000": 5396,
      "weak": 5397,
      "Hong": 5398,
      "GOP": 5399,
      "cameras": 5400,
      "itude": 5401,
      "itchen": 5402,
      "orders": 5403,
      "Medical": 5404,
      "ifying": 5405,
      "tiny": 5406,
      "ruption": 5407,
      "damaged": 5408,
      "nell": 5409,
      "unusual": 5410,
      "Eliza": 5411,
      "tight": 5412,
      "reading": 5413,
      "deadly": 5414,
      "Zealand": 5415,
      "funding": 5416,
      "ologist": 5417,
      "Color": 5418,
      "backed": 5419,
      "relatives": 5420,
      "swit": 5421,
      "Ford": 5422,
      "democr": 5423,
      "roof": 5424,
      "Force": 5425,
      "Dan": 5426,
      "management": 5427,
      "individuals": 5428,
      "soldier": 5429,
      "Matthew": 5430,
      "promised": 5431,
      "upset": 5432,
      "suggests": 5433,
      "Any": 5434,
      "Lat": 5435,
      "Who": 5436,
      "grown": 5437,
      "Only": 5438,
      "nam": 5439,
      "definitely": 5440,
      "circumstances": 5441,
      "Hart": 5442,
      "Fl": 5443,
      "uce": 5444,
      "enjoyed": 5445,
      "tery": 5446,
      "ela": 5447,
      "ovic": 5448,
      "recru": 5449,
      "Mourinho": 5450,
      "trick": 5451,
      "regularly": 5452,
      "illy": 5453,
      "Diego": 5454,
      "lax": 5455,
      "syn": 5456,
      "Reg": 5457,
      "debt": 5458,
      "brut": 5459,
      "Everton": 5460,
      "survived": 5461,
      "tood": 5462,
      "listed": 5463,
      "Stud": 5464,
      "witnesses": 5465,
      "oppon": 5466,
      "cock": 5467,
      "helps": 5468,
      "fol": 5469,
      "Sc": 5470,
      "Gary": 5471,
      "affair": 5472,
      "gro": 5473,
      "noted": 5474,
      "experienced": 5475,
      "anna": 5476,
      "Because": 5477,
      "lah": 5478,
      "theast": 5479,
      "understood": 5480,
      "pieces": 5481,
      "conscious": 5482,
      "iano": 5483,
      "iversary": 5484,
      "06": 5485,
      "eing": 5486,
      "destroyed": 5487,
      "leaves": 5488,
      "neighborhood": 5489,
      "rom": 5490,
      "Lind": 5491,
      "rail": 5492,
      "Costa": 5493,
      "evol": 5494,
      "square": 5495,
      "ables": 5496,
      "elling": 5497,
      "Davis": 5498,
      "hone": 5499,
      "drove": 5500,
      "symptoms": 5501,
      "NBC": 5502,
      "produce": 5503,
      "pushed": 5504,
      "failing": 5505,
      "ique": 5506,
      "clash": 5507,
      "operating": 5508,
      "Roy": 5509,
      "quarters": 5510,
      "pas": 5511,
      "Belg": 5512,
      "Burn": 5513,
      "vari": 5514,
      "plays": 5515,
      "businesses": 5516,
      "Mem": 5517,
      "aces": 5518,
      "Tour": 5519,
      "escap": 5520,
      "astic": 5521,
      "Kong": 5522,
      "stores": 5523,
      "establish": 5524,
      "laughter": 5525,
      "killer": 5526,
      "crashed": 5527,
      "aret": 5528,
      "shape": 5529,
      "Olympics": 5530,
      "saved": 5531,
      "rence": 5532,
      "passing": 5533,
      "maybe": 5534,
      "Juli": 5535,
      "exercise": 5536,
      "Gen": 5537,
      "iami": 5538,
      "Stadium": 5539,
      "activities": 5540,
      "Lake": 5541,
      "prem": 5542,
      "western": 5543,
      "keen": 5544,
      "iest": 5545,
      "governor": 5546,
      "pal": 5547,
      "Bus": 5548,
      "Greg": 5549,
      "atest": 5550,
      "retail": 5551,
      "historic": 5552,
      "EA": 5553,
      "entertain": 5554,
      "rant": 5555,
      "increasingly": 5556,
      "Ministry": 5557,
      "Miami": 5558,
      "Yorkshire": 5559,
      "thank": 5560,
      "providing": 5561,
      "construction": 5562,
      "brothers": 5563,
      "dance": 5564,
      "influence": 5565,
      "Blo": 5566,
      "Institute": 5567,
      "strength": 5568,
      "prop": 5569,
      "likes": 5570,
      "opted": 5571,
      "creating": 5572,
      "Hal": 5573,
      "science": 5574,
      "aled": 5575,
      "yard": 5576,
      "collect": 5577,
      "Women": 5578,
      "vac": 5579,
      "Gaz": 5580,
      "umn": 5581,
      "vulner": 5582,
      "barrass": 5583,
      "Pad": 5584,
      "interested": 5585,
      "advantage": 5586,
      "vals": 5587,
      "primary": 5588,
      "epis": 5589,
      "presence": 5590,
      "larger": 5591,
      "Ronaldo": 5592,
      "originally": 5593,
      "intended": 5594,
      "Colorado": 5595,
      "species": 5596,
      "Duchess": 5597,
      "models": 5598,
      "py": 5599,
      "istol": 5600,
      "extrem": 5601,
      "anniversary": 5602,
      "Centre": 5603,
      "aran": 5604,
      "Report": 5605,
      "policies": 5606,
      "uss": 5607,
      "plus": 5608,
      "hire": 5609,
      "achu": 5610,
      "colour": 5611,
      "iband": 5612,
      "maker": 5613,
      "Assad": 5614,
      "orary": 5615,
      "ulate": 5616,
      "Northern": 5617,
      "memory": 5618,
      "meat": 5619,
      "Roman": 5620,
      "Dutch": 5621,
      "chest": 5622,
      "babies": 5623,
      "illance": 5624,
      "surrounding": 5625,
      "athlet": 5626,
      "Atlanta": 5627,
      "bags": 5628,
      "adult": 5629,
      "mand": 5630,
      "designer": 5631,
      "ademy": 5632,
      "tool": 5633,
      "complaint": 5634,
      "Miliband": 5635,
      "eastern": 5636,
      "causes": 5637,
      "hatt": 5638,
      "Like": 5639,
      "Suarez": 5640,
      "tribute": 5641,
      "forms": 5642,
      "bigger": 5643,
      "deploy": 5644,
      "heading": 5645,
      "consult": 5646,
      "climate": 5647,
      "Ros": 5648,
      "detect": 5649,
      "mine": 5650,
      "Evans": 5651,
      "odd": 5652,
      "Jay": 5653,
      "plat": 5654,
      "argued": 5655,
      "Bern": 5656,
      "string": 5657,
      "Bul": 5658,
      "isher": 5659,
      "Oli": 5660,
      "ingly": 5661,
      "sett": 5662,
      "facility": 5663,
      "Ohio": 5664,
      "Research": 5665,
      "lers": 5666,
      "itch": 5667,
      "panel": 5668,
      "correct": 5669,
      "belief": 5670,
      "disaster": 5671,
      "inet": 5672,
      "pes": 5673,
      "thro": 5674,
      "jack": 5675,
      "master": 5676,
      "Sho": 5677,
      "employment": 5678,
      "lected": 5679,
      "Jour": 5680,
      "Abu": 5681,
      "Snow": 5682,
      "Hotel": 5683,
      "uana": 5684,
      "announcement": 5685,
      "nic": 5686,
      "tail": 5687,
      "Kir": 5688,
      "helicopter": 5689,
      "noticed": 5690,
      "analys": 5691,
      "Trust": 5692,
      "Portug": 5693,
      "planet": 5694,
      "icated": 5695,
      "rushed": 5696,
      "Elizabeth": 5697,
      "vessel": 5698,
      "05": 5699,
      "sought": 5700,
      "Defense": 5701,
      "Ok": 5702,
      "bourne": 5703,
      "parliament": 5704,
      "proved": 5705,
      "dio": 5706,
      "professor": 5707,
      "driven": 5708,
      "stro": 5709,
      "unve": 5710,
      "contacted": 5711,
      "Lar": 5712,
      "edge": 5713,
      "dozens": 5714,
      "assu": 5715,
      "Saf": 5716,
      "apping": 5717,
      "potentially": 5718,
      "weigh": 5719,
      "Hod": 5720,
      "athe": 5721,
      "trained": 5722,
      "exhib": 5723,
      "ams": 5724,
      "pursu": 5725,
      "accepted": 5726,
      "reput": 5727,
      "Dem": 5728,
      "ifer": 5729,
      "knowledge": 5730,
      "bars": 5731,
      "Bridge": 5732,
      "termine": 5733,
      "presents": 5734,
      "journalist": 5735,
      "Rose": 5736,
      "itz": 5737,
      "ijuana": 5738,
      "determine": 5739,
      "ongoing": 5740,
      "plastic": 5741,
      "bare": 5742,
      "Jess": 5743,
      "UN": 5744,
      "spitals": 5745,
      "Show": 5746,
      "spirit": 5747,
      "Hamilton": 5748,
      "Parliament": 5749,
      "label": 5750,
      "iar": 5751,
      "hill": 5752,
      "easily": 5753,
      "scan": 5754,
      "golf": 5755,
      "explain": 5756,
      "setts": 5757,
      "function": 5758,
      "nations": 5759,
      "myster": 5760,
      "expand": 5761,
      "resist": 5762,
      "Art": 5763,
      "inquest": 5764,
      "perman": 5765,
      "reflect": 5766,
      "Rock": 5767,
      "featured": 5768,
      "borne": 5769,
      "busy": 5770,
      "Cole": 5771,
      "andez": 5772,
      "struggle": 5773,
      "blame": 5774,
      "affil": 5775,
      "Anderson": 5776,
      "housing": 5777,
      "slight": 5778,
      "ernandez": 5779,
      "Iraqi": 5780,
      "AC": 5781,
      "aced": 5782,
      "sexually": 5783,
      "smoke": 5784,
      "sparked": 5785,
      "Spr": 5786,
      "inches": 5787,
      "obs": 5788,
      "Also": 5789,
      "occup": 5790,
      "legislation": 5791,
      "scow": 5792,
      "kitchen": 5793,
      "recovered": 5794,
      "Gul": 5795,
      "tot": 5796,
      "assess": 5797,
      "Asia": 5798,
      "stadium": 5799,
      "visiting": 5800,
      "embarrass": 5801,
      "promise": 5802,
      "Massachu": 5803,
      "drag": 5804,
      "Der": 5805,
      "ww": 5806,
      "thus": 5807,
      "Mont": 5808,
      "icken": 5809,
      "Massachusetts": 5810,
      "ardi": 5811,
      "exclus": 5812,
      "Kur": 5813,
      "fallen": 5814,
      "riot": 5815,
      "zi": 5816,
      "Swed": 5817,
      "earned": 5818,
      "focused": 5819,
      "Care": 5820,
      "iat": 5821,
      "plants": 5822,
      "teachers": 5823,
      "skills": 5824,
      "passion": 5825,
      "subur": 5826,
      "gate": 5827,
      "standard": 5828,
      "wins": 5829,
      "identity": 5830,
      "Test": 5831,
      "attempts": 5832,
      "Mand": 5833,
      "task": 5834,
      "Allen": 5835,
      "ulated": 5836,
      "scheme": 5837,
      "happens": 5838,
      "Jes": 5839,
      "legally": 5840,
      "profit": 5841,
      "fought": 5842,
      "abs": 5843,
      "evac": 5844,
      "Pict": 5845,
      "unlikely": 5846,
      "performed": 5847,
      "identify": 5848,
      "erous": 5849,
      "refuge": 5850,
      "Feder": 5851,
      "prosecution": 5852,
      "options": 5853,
      "prosecutor": 5854,
      "locked": 5855,
      "Cy": 5856,
      "Il": 5857,
      "2016": 5858,
      "Michelle": 5859,
      "rejected": 5860,
      "Moscow": 5861,
      "learning": 5862,
      "ais": 5863,
      "inspir": 5864,
      "farm": 5865,
      "possibility": 5866,
      "Life": 5867,
      "Top": 5868,
      "wine": 5869,
      "ticket": 5870,
      "semi": 5871,
      "deputy": 5872,
      "spring": 5873,
      "effective": 5874,
      "bery": 5875,
      "legend": 5876,
      "mistake": 5877,
      "ijing": 5878,
      "inquiry": 5879,
      "ronic": 5880,
      "Ian": 5881,
      "sees": 5882,
      "Cross": 5883,
      "grandmother": 5884,
      "Mich": 5885,
      "roads": 5886,
      "letters": 5887,
      "cards": 5888,
      "Henry": 5889,
      "Gard": 5890,
      "Beijing": 5891,
      "Yet": 5892,
      "filmed": 5893,
      "traum": 5894,
      "delight": 5895,
      "decisions": 5896,
      "Saudi": 5897,
      "conspir": 5898,
      "enders": 5899,
      "asket": 5900,
      "Sor": 5901,
      "igno": 5902,
      "Clark": 5903,
      "proposed": 5904,
      "communities": 5905,
      "waters": 5906,
      "Milan": 5907,
      "marks": 5908,
      "Hun": 5909,
      "command": 5910,
      "equal": 5911,
      "Lady": 5912,
      "route": 5913,
      "cycl": 5914,
      "surprised": 5915,
      "behavior": 5916,
      "mosp": 5917,
      "occasion": 5918,
      "conversation": 5919,
      "struggled": 5920,
      "Ann": 5921,
      "hate": 5922,
      "kiss": 5923,
      "province": 5924,
      "icts": 5925,
      "Mayor": 5926,
      "immediate": 5927,
      "Sain": 5928,
      "dollars": 5929,
      "appre": 5930,
      "uit": 5931,
      "tragic": 5932,
      "arrang": 5933,
      "essential": 5934,
      "Football": 5935,
      "oted": 5936,
      "happening": 5937,
      "travelling": 5938,
      "delivered": 5939,
      "zon": 5940,
      "ially": 5941,
      "conservative": 5942,
      "Manhatt": 5943,
      "shout": 5944,
      "egg": 5945,
      "testing": 5946,
      "Cook": 5947,
      "sorry": 5948,
      "aught": 5949,
      "Manhattan": 5950,
      "ipe": 5951,
      "journalists": 5952,
      "iter": 5953,
      "pill": 5954,
      "Foundation": 5955,
      "ambulance": 5956,
      "rose": 5957,
      "developing": 5958,
      "gathered": 5959,
      "Bag": 5960,
      "Villa": 5961,
      "boast": 5962,
      "complaints": 5963,
      "loaded": 5964,
      "Coll": 5965,
      "ode": 5966,
      "conducted": 5967,
      "valu": 5968,
      "deeply": 5969,
      "mod": 5970,
      "closer": 5971,
      "Leice": 5972,
      "investment": 5973,
      "remote": 5974,
      "findings": 5975,
      "alling": 5976,
      "murdered": 5977,
      "welcome": 5978,
      "landing": 5979,
      "tears": 5980,
      "tie": 5981,
      "Fab": 5982,
      "joint": 5983,
      "Phill": 5984,
      "mostly": 5985,
      "Buck": 5986,
      "properly": 5987,
      "iti": 5988,
      "write": 5989,
      "fficient": 5990,
      "notice": 5991,
      "Cru": 5992,
      "cells": 5993,
      "inte": 5994,
      "publicly": 5995,
      "rebels": 5996,
      "sym": 5997,
      "About": 5998,
      "Wayne": 5999,
      "stayed": 6000,
      "none": 6001,
      "medal": 6002,
      "thrown": 6003,
      "Messi": 6004,
      "relax": 6005,
      "films": 6006,
      "compens": 6007,
      "choose": 6008,
      "affili": 6009,
      "Among": 6010,
      "acknowled": 6011,
      "Hou": 6012,
      "banks": 6013,
      "lon": 6014,
      "Nat": 6015,
      "taxpay": 6016,
      "blow": 6017,
      "ivity": 6018,
      "overall": 6019,
      "opinion": 6020,
      "elled": 6021,
      "cket": 6022,
      "funds": 6023,
      "Francisco": 6024,
      "employee": 6025,
      "painting": 6026,
      "tested": 6027,
      "Princess": 6028,
      "candidates": 6029,
      "stance": 6030,
      "incidents": 6031,
      "distri": 6032,
      "blamed": 6033,
      "bike": 6034,
      "owell": 6035,
      "dramatic": 6036,
      "exchange": 6037,
      "Alexander": 6038,
      "bassy": 6039,
      "NFL": 6040,
      "enty": 6041,
      "client": 6042,
      "divorce": 6043,
      "FIFA": 6044,
      "smaller": 6045,
      "stagram": 6046,
      "Town": 6047,
      "approved": 6048,
      "Rac": 6049,
      "challenges": 6050,
      "shar": 6051,
      "organiz": 6052,
      "surveillance": 6053,
      "ala": 6054,
      "coverage": 6055,
      "Brian": 6056,
      "inch": 6057,
      "Instagram": 6058,
      "viewers": 6059,
      "USA": 6060,
      "trigger": 6061,
      "celebrates": 6062,
      "buying": 6063,
      "offee": 6064,
      "horrif": 6065,
      "presented": 6066,
      "verse": 6067,
      "bish": 6068,
      "tun": 6069,
      "Six": 6070,
      "Sher": 6071,
      "trees": 6072,
      "tend": 6073,
      "prefer": 6074,
      "Las": 6075,
      "cture": 6076,
      "Libya": 6077,
      "airline": 6078,
      "tomor": 6079,
      "buried": 6080,
      "elected": 6081,
      "stuck": 6082,
      "tha": 6083,
      "considering": 6084,
      "widely": 6085,
      "possibly": 6086,
      "Channel": 6087,
      "tomorrow": 6088,
      "Bet": 6089,
      "tourists": 6090,
      "punish": 6091,
      "metal": 6092,
      "complic": 6093,
      "greatest": 6094,
      "method": 6095,
      "capture": 6096,
      "Cathol": 6097,
      "landed": 6098,
      "chances": 6099,
      "los": 6100,
      "vulnerable": 6101,
      "Charlie": 6102,
      "distance": 6103,
      "lav": 6104,
      "vey": 6105,
      "highlight": 6106,
      "eline": 6107,
      "Square": 6108,
      "gap": 6109,
      "staying": 6110,
      "nurse": 6111,
      "celebrity": 6112,
      "marijuana": 6113,
      "lunch": 6114,
      "resources": 6115,
      "numerous": 6116,
      "routine": 6117,
      "possession": 6118,
      "Mexican": 6119,
      "ita": 6120,
      "Hom": 6121,
      "Naz": 6122,
      "Ill": 6123,
      "consequ": 6124,
      "supported": 6125,
      "antly": 6126,
      "Comp": 6127,
      "complained": 6128,
      "scenes": 6129,
      "Get": 6130,
      "cia": 6131,
      "largely": 6132,
      "Morris": 6133,
      "controlled": 6134,
      "advoc": 6135,
      "syl": 6136,
      "Oscar": 6137,
      "tag": 6138,
      "Back": 6139,
      "tu": 6140,
      "usion": 6141,
      "DC": 6142,
      "politicians": 6143,
      "Sterling": 6144,
      "seats": 6145,
      "rating": 6146,
      "satis": 6147,
      "cation": 6148,
      "combat": 6149,
      "Rel": 6150,
      "Space": 6151,
      "Yes": 6152,
      "Josh": 6153,
      "DA": 6154,
      "Public": 6155,
      "Bon": 6156,
      "verdict": 6157,
      "cig": 6158,
      "icket": 6159,
      "drew": 6160,
      "personnel": 6161,
      "fighter": 6162,
      "bla": 6163,
      "predict": 6164,
      "liber": 6165,
      "ache": 6166,
      "Philip": 6167,
      "stabbed": 6168,
      "investigate": 6169,
      "Rights": 6170,
      "pub": 6171,
      "ategy": 6172,
      "bassador": 6173,
      "ju": 6174,
      "enses": 6175,
      "collaps": 6176,
      "eland": 6177,
      "Jane": 6178,
      "basis": 6179,
      "illing": 6180,
      "Soci": 6181,
      "Ly": 6182,
      "clothing": 6183,
      "lab": 6184,
      "Duke": 6185,
      "veteran": 6186,
      "Championship": 6187,
      "Gun": 6188,
      "isol": 6189,
      "calm": 6190,
      "establ": 6191,
      "grounds": 6192,
      "hoped": 6193,
      "pointed": 6194,
      "Max": 6195,
      "Tran": 6196,
      "dismissed": 6197,
      "fron": 6198,
      "Hamp": 6199,
      "Ap": 6200,
      "cipl": 6201,
      "Fer": 6202,
      "zen": 6203,
      "heavily": 6204,
      "privacy": 6205,
      "700": 6206,
      "offences": 6207,
      "Patrick": 6208,
      "Are": 6209,
      "intent": 6210,
      "marked": 6211,
      "museum": 6212,
      "Iranian": 6213,
      "dry": 6214,
      "Sheriff": 6215,
      "trail": 6216,
      "iner": 6217,
      "honor": 6218,
      "restrict": 6219,
      "euro": 6220,
      "Lead": 6221,
      "Lanc": 6222,
      "whatever": 6223,
      "consu": 6224,
      "ella": 6225,
      "fold": 6226,
      "Ross": 6227,
      "Rick": 6228,
      "jok": 6229,
      "planes": 6230,
      "activists": 6231,
      "elle": 6232,
      "atmosp": 6233,
      "Ama": 6234,
      "iser": 6235,
      "negative": 6236,
      "nick": 6237,
      "agencies": 6238,
      "nom": 6239,
      "adds": 6240,
      "yellow": 6241,
      "integr": 6242,
      "burgh": 6243,
      "ipped": 6244,
      "Lev": 6245,
      "grav": 6246,
      "Graham": 6247,
      "Lad": 6248,
      "norm": 6249,
      "Best": 6250,
      "vania": 6251,
      "retire": 6252,
      "disappeared": 6253,
      "rell": 6254,
      "abandoned": 6255,
      "ansas": 6256,
      "writer": 6257,
      "icy": 6258,
      "remaining": 6259,
      "terrorists": 6260,
      "Glo": 6261,
      "Ball": 6262,
      "tact": 6263,
      "Andre": 6264,
      "Abd": 6265,
      "infection": 6266,
      "dust": 6267,
      "Hug": 6268,
      "(£": 6269,
      "wave": 6270,
      "coc": 6271,
      "anony": 6272,
      "Valley": 6273,
      "Canad": 6274,
      "Friend": 6275,
      "whel": 6276,
      "markets": 6277,
      "civilians": 6278,
      "Journal": 6279,
      "humans": 6280,
      "04": 6281,
      "weren": 6282,
      "Ut": 6283,
      "Team": 6284,
      "shoes": 6285,
      "liter": 6286,
      "Jason": 6287,
      "tou": 6288,
      "irts": 6289,
      "pension": 6290,
      "shark": 6291,
      "ounced": 6292,
      "prec": 6293,
      "Pac": 6294,
      "torn": 6295,
      "Cab": 6296,
      "rocket": 6297,
      "obviously": 6298,
      "bun": 6299,
      "Crime": 6300,
      "Christop": 6301,
      "77": 6302,
      "abled": 6303,
      "raw": 6304,
      "critics": 6305,
      "Jen": 6306,
      "ogue": 6307,
      "established": 6308,
      "Second": 6309,
      "offensive": 6310,
      "album": 6311,
      "replaced": 6312,
      "knee": 6313,
      "iring": 6314,
      "supply": 6315,
      "ouri": 6316,
      "Queens": 6317,
      "Mars": 6318,
      "excited": 6319,
      "Stan": 6320,
      "swimming": 6321,
      "lots": 6322,
      "iro": 6323,
      "seized": 6324,
      "Pennsyl": 6325,
      "code": 6326,
      "gender": 6327,
      "Leon": 6328,
      "authority": 6329,
      "teenage": 6330,
      "gym": 6331,
      "motiv": 6332,
      "Little": 6333,
      "lady": 6334,
      "Bud": 6335,
      "Joseph": 6336,
      "lan": 6337,
      "stein": 6338,
      "disorder": 6339,
      "tennis": 6340,
      "citizen": 6341,
      "Khan": 6342,
      "stunning": 6343,
      "parking": 6344,
      "gall": 6345,
      "Swan": 6346,
      "tea": 6347,
      "cutting": 6348,
      "relations": 6349,
      "Pennsylvania": 6350,
      "Irish": 6351,
      "Turk": 6352,
      "strategy": 6353,
      "connected": 6354,
      "Airl": 6355,
      "distribut": 6356,
      "balance": 6357,
      "RS": 6358,
      "yourself": 6359,
      "cking": 6360,
      "Gov": 6361,
      "Officials": 6362,
      "defe": 6363,
      "apt": 6364,
      "Kerry": 6365,
      "intim": 6366,
      "ogra": 6367,
      "yo": 6368,
      "stepped": 6369,
      "Malays": 6370,
      "gotten": 6371,
      "virt": 6372,
      "brutal": 6373,
      "Airlines": 6374,
      "math": 6375,
      "asy": 6376,
      "Week": 6377,
      "Luis": 6378,
      "inspe": 6379,
      "chose": 6380,
      "targets": 6381,
      "Muslims": 6382,
      "Pen": 6383,
      "Dete": 6384,
      "Nic": 6385,
      "1970": 6386,
      "exposed": 6387,
      "Lyn": 6388,
      "iers": 6389,
      "bottle": 6390,
      "Each": 6391,
      "cope": 6392,
      "stream": 6393,
      "talked": 6394,
      "Nev": 6395,
      "impressive": 6396,
      "dozen": 6397,
      "worldwide": 6398,
      "ua": 6399,
      "guys": 6400,
      "Exper": 6401,
      "Has": 6402,
      "remarks": 6403,
      "honest": 6404,
      "studies": 6405,
      "desperate": 6406,
      "elderly": 6407,
      "Laur": 6408,
      "aire": 6409,
      "hospitals": 6410,
      "Museum": 6411,
      "icking": 6412,
      "illed": 6413,
      "prisoners": 6414,
      "ulous": 6415,
      "rivals": 6416,
      "Watson": 6417,
      "Cooper": 6418,
      "pupils": 6419,
      "ET": 6420,
      "portion": 6421,
      "Bas": 6422,
      "awarded": 6423,
      "Hear": 6424,
      "worn": 6425,
      "detail": 6426,
      "Terry": 6427,
      "ja": 6428,
      "pleas": 6429,
      "bone": 6430,
      "amm": 6431,
      "umped": 6432,
      "reputation": 6433,
      "collapsed": 6434,
      "Sever": 6435,
      "insists": 6436,
      "guards": 6437,
      "Stand": 6438,
      "revel": 6439,
      "PS": 6440,
      "jur": 6441,
      "impossible": 6442,
      "bills": 6443,
      "biz": 6444,
      "plor": 6445,
      "controversy": 6446,
      "jump": 6447,
      "mitted": 6448,
      "thinks": 6449,
      "parent": 6450,
      "Vegas": 6451,
      "nose": 6452,
      "arrive": 6453,
      "granted": 6454,
      "Bayern": 6455,
      "Federal": 6456,
      "Fil": 6457,
      "istics": 6458,
      "notes": 6459,
      "length": 6460,
      "ads": 6461,
      "Cro": 6462,
      "programs": 6463,
      "Officers": 6464,
      "Leicester": 6465,
      "Jonathan": 6466,
      "admits": 6467,
      "iew": 6468,
      "moves": 6469,
      "reveals": 6470,
      "66": 6471,
      "habit": 6472,
      "acle": 6473,
      "Jr": 6474,
      "quake": 6475,
      "slaughter": 6476,
      "ellor": 6477,
      "joining": 6478,
      "wonderful": 6479,
      "understanding": 6480,
      "tied": 6481,
      "discipl": 6482,
      "outrage": 6483,
      "memorial": 6484,
      "Ashley": 6485,
      "reduced": 6486,
      "sharing": 6487,
      "waste": 6488,
      "everybody": 6489,
      "criticised": 6490,
      "silver": 6491,
      "Melbourne": 6492,
      "associated": 6493,
      "anx": 6494,
      "Nas": 6495,
      "easier": 6496,
      "founded": 6497,
      "Christopher": 6498,
      "Houston": 6499,
      "uated": 6500,
      "actors": 6501,
      "plenty": 6502,
      "Still": 6503,
      "****": 6504,
      "referred": 6505,
      "devastated": 6506,
      "Its": 6507,
      "terrible": 6508,
      "dish": 6509,
      "truly": 6510,
      "champions": 6511,
      "goalkeeper": 6512,
      "PM": 6513,
      "mut": 6514,
      "maxim": 6515,
      "Organ": 6516,
      "CCTV": 6517,
      "recording": 6518,
      "supporting": 6519,
      "acceptable": 6520,
      "deter": 6521,
      "Wenger": 6522,
      "grave": 6523,
      "Mah": 6524,
      "aks": 6525,
      "coffee": 6526,
      "iden": 6527,
      "sque": 6528,
      "brill": 6529,
      "flew": 6530,
      "acre": 6531,
      "sar": 6532,
      "sis": 6533,
      "conviction": 6534,
      "Love": 6535,
      "dates": 6536,
      "etic": 6537,
      "IT": 6538,
      "symbol": 6539,
      "ova": 6540,
      "allas": 6541,
      "throw": 6542,
      "Oxford": 6543,
      "dones": 6544,
      "direction": 6545,
      "outbreak": 6546,
      "Corn": 6547,
      "survive": 6548,
      "Following": 6549,
      "tox": 6550,
      "tank": 6551,
      "interests": 6552,
      "quit": 6553,
      "raped": 6554,
      "tware": 6555,
      "Ow": 6556,
      "Santa": 6557,
      "thoughts": 6558,
      "appearances": 6559,
      "abort": 6560,
      "fortunately": 6561,
      "vacc": 6562,
      "eding": 6563,
      "grade": 6564,
      "sic": 6565,
      "stomach": 6566,
      "surviv": 6567,
      "org": 6568,
      "Moore": 6569,
      "Time": 6570,
      "bie": 6571,
      "overwhel": 6572,
      "argument": 6573,
      "tear": 6574,
      "vation": 6575,
      "aded": 6576,
      "explosion": 6577,
      "phe": 6578,
      "feared": 6579,
      "patter": 6580,
      "Anton": 6581,
      "realised": 6582,
      "Craig": 6583,
      "tat": 6584,
      "waves": 6585,
      "abroad": 6586,
      "Indones": 6587,
      "fake": 6588,
      "replace": 6589,
      "editor": 6590,
      "imin": 6591,
      "winds": 6592,
      "continuing": 6593,
      "hitting": 6594,
      "starts": 6595,
      "Michigan": 6596,
      "iPad": 6597,
      "Christie": 6598,
      "Blue": 6599,
      "unless": 6600,
      "threw": 6601,
      "Rodgers": 6602,
      "escaped": 6603,
      "rial": 6604,
      "arrival": 6605,
      "cott": 6606,
      "ette": 6607,
      "Sports": 6608,
      "defendant": 6609,
      "pregnancy": 6610,
      "Gaza": 6611,
      "Mother": 6612,
      "diff": 6613,
      "statements": 6614,
      "initi": 6615,
      "express": 6616,
      "Canadian": 6617,
      "solution": 6618,
      "courts": 6619,
      "Colomb": 6620,
      "barri": 6621,
      "Palestinian": 6622,
      "risks": 6623,
      "esc": 6624,
      "somebody": 6625,
      "tall": 6626,
      "uez": 6627,
      "micro": 6628,
      "princ": 6629,
      "bond": 6630,
      "discovery": 6631,
      "owns": 6632,
      "Hull": 6633,
      "Edward": 6634,
      "hunt": 6635,
      "blind": 6636,
      "prompted": 6637,
      "Girl": 6638,
      "mothers": 6639,
      "Jennifer": 6640,
      "tickets": 6641,
      "Anna": 6642,
      "Fred": 6643,
      "relief": 6644,
      "accur": 6645,
      "laid": 6646,
      "infr": 6647,
      "67": 6648,
      "CIA": 6649,
      "fined": 6650,
      "iga": 6651,
      "Robinson": 6652,
      "approached": 6653,
      "amber": 6654,
      "cocaine": 6655,
      "Call": 6656,
      "congress": 6657,
      "coalition": 6658,
      "toile": 6659,
      "ancellor": 6660,
      "empty": 6661,
      "wash": 6662,
      "internal": 6663,
      "shocking": 6664,
      "customer": 6665,
      "Associated": 6666,
      "arts": 6667,
      "Gordon": 6668,
      "Emma": 6669,
      "Sud": 6670,
      "acity": 6671,
      "ila": 6672,
      "couples": 6673,
      "ubbed": 6674,
      "unknown": 6675,
      "agan": 6676,
      "pover": 6677,
      "closely": 6678,
      "Oper": 6679,
      "85": 6680,
      "atmosphere": 6681,
      "ira": 6682,
      "Whit": 6683,
      "followers": 6684,
      "vital": 6685,
      "harass": 6686,
      "anne": 6687,
      "emic": 6688,
      "horri": 6689,
      "employed": 6690,
      "sanctions": 6691,
      "ashing": 6692,
      "hidden": 6693,
      "leads": 6694,
      "innocent": 6695,
      "Land": 6696,
      "deliber": 6697,
      "1999": 6698,
      "fing": 6699,
      "MS": 6700,
      "Photo": 6701,
      "Tro": 6702,
      "concluded": 6703,
      "Sunder": 6704,
      "Pope": 6705,
      "achiev": 6706,
      "core": 6707,
      "Jamie": 6708,
      "Scient": 6709,
      "ored": 6710,
      "Brother": 6711,
      "connect": 6712,
      "prescri": 6713,
      "encourage": 6714,
      "pson": 6715,
      "finger": 6716,
      "satell": 6717,
      "unities": 6718,
      "distur": 6719,
      "unclear": 6720,
      "opinions": 6721,
      "corruption": 6722,
      "Fal": 6723,
      "jumped": 6724,
      "revolution": 6725,
      "meal": 6726,
      "Conne": 6727,
      "Water": 6728,
      "legg": 6729,
      "uster": 6730,
      "izes": 6731,
      "height": 6732,
      "aco": 6733,
      "shops": 6734,
      "arre": 6735,
      "istani": 6736,
      "Gulf": 6737,
      "Bang": 6738,
      "Doctors": 6739,
      "provides": 6740,
      "Walker": 6741,
      "Edu": 6742,
      "Neil": 6743,
      "invited": 6744,
      "Radio": 6745,
      "procedure": 6746,
      "Sunderland": 6747,
      "cleared": 6748,
      "Catholic": 6749,
      "OK": 6750,
      "basic": 6751,
      "engaged": 6752,
      "tackle": 6753,
      "consumers": 6754,
      "replac": 6755,
      "Zimmer": 6756,
      "alle": 6757,
      "aska": 6758,
      "drunk": 6759,
      "Rio": 6760,
      "novel": 6761,
      "concent": 6762,
      "wid": 6763,
      "encounter": 6764,
      "Yemen": 6765,
      "totally": 6766,
      "cook": 6767,
      "gust": 6768,
      "borough": 6769,
      "tex": 6770,
      "Bell": 6771,
      "searching": 6772,
      "immigrants": 6773,
      "capable": 6774,
      "Pakistani": 6775,
      "software": 6776,
      "Hughes": 6777,
      "episode": 6778,
      "gi": 6779,
      "dealing": 6780,
      "testified": 6781,
      "ordin": 6782,
      "Ukrain": 6783,
      "Director": 6784,
      "See": 6785,
      "follows": 6786,
      "badly": 6787,
      "Thompson": 6788,
      "03": 6789,
      "Danny": 6790,
      "attacking": 6791,
      "formal": 6792,
      "shad": 6793,
      "Hernandez": 6794,
      "mel": 6795,
      "earning": 6796,
      "annah": 6797,
      "smoking": 6798,
      "scores": 6799,
      "raid": 6800,
      "mann": 6801,
      "Campbell": 6802,
      "excess": 6803,
      "plea": 6804,
      "sharp": 6805,
      "!\"": 6806,
      "atherine": 6807,
      "knowing": 6808,
      "Wim": 6809,
      "permission": 6810,
      "Leeds": 6811,
      "Boy": 6812,
      "petition": 6813,
      "bench": 6814,
      "Essex": 6815,
      "wreck": 6816,
      "sch": 6817,
      "chan": 6818,
      "lung": 6819,
      "Ri": 6820,
      "Jewish": 6821,
      "ws": 6822,
      "slightly": 6823,
      "aimed": 6824,
      "denies": 6825,
      "amb": 6826,
      "visible": 6827,
      "solid": 6828,
      "ureau": 6829,
      "preparing": 6830,
      "naked": 6831,
      "proposal": 6832,
      "Sum": 6833,
      "olds": 6834,
      "joy": 6835,
      "Jessica": 6836,
      "forget": 6837,
      "aser": 6838,
      "ancient": 6839,
      "marry": 6840,
      "Abdul": 6841,
      "erup": 6842,
      "Social": 6843,
      "LL": 6844,
      "suspicion": 6845,
      "adel": 6846,
      "digital": 6847,
      "lifestyle": 6848,
      "Hur": 6849,
      "stated": 6850,
      "replied": 6851,
      "fro": 6852,
      "68": 6853,
      "NAT": 6854,
      "basket": 6855,
      "fford": 6856,
      "detained": 6857,
      "Prosecutors": 6858,
      "vention": 6859,
      "minimum": 6860,
      "pread": 6861,
      "Whe": 6862,
      "rapid": 6863,
      "labor": 6864,
      "investigated": 6865,
      "ques": 6866,
      "Greece": 6867,
      "62": 6868,
      "Sorry": 6869,
      "forecast": 6870,
      "elson": 6871,
      "resto": 6872,
      "newly": 6873,
      "dying": 6874,
      "normally": 6875,
      "mour": 6876,
      "payments": 6877,
      "ware": 6878,
      "radical": 6879,
      "talent": 6880,
      "pushing": 6881,
      "NY": 6882,
      "fitness": 6883,
      "Wind": 6884,
      "hadn": 6885,
      "Knight": 6886,
      "robot": 6887,
      "hide": 6888,
      "welfare": 6889,
      "Rodrig": 6890,
      "Turn": 6891,
      "categ": 6892,
      "Atlantic": 6893,
      "Carl": 6894,
      "iance": 6895,
      "Op": 6896,
      "refere": 6897,
      "Wright": 6898,
      "ministers": 6899,
      "64": 6900,
      "prepare": 6901,
      "suddenly": 6902,
      "Tenn": 6903,
      "ott": 6904,
      "lifted": 6905,
      "Asked": 6906,
      "Swansea": 6907,
      "abused": 6908,
      "cles": 6909,
      "Nigeria": 6910,
      "turns": 6911,
      "prospect": 6912,
      "otic": 6913,
      "compensation": 6914,
      "surrounded": 6915,
      "Turkish": 6916,
      "fees": 6917,
      "ipal": 6918,
      "familiar": 6919,
      "automat": 6920,
      "yards": 6921,
      "scar": 6922,
      "Ple": 6923,
      "aval": 6924,
      "lapse": 6925,
      "recalled": 6926,
      "ae": 6927,
      "involvement": 6928,
      "proof": 6929,
      "surprising": 6930,
      "Nich": 6931,
      "Perry": 6932,
      "racist": 6933,
      "metres": 6934,
      "Clar": 6935,
      "cart": 6936,
      "behalf": 6937,
      "Tech": 6938,
      "jihad": 6939,
      "Simp": 6940,
      "tap": 6941,
      "scri": 6942,
      "imagine": 6943,
      "contra": 6944,
      "umber": 6945,
      "scared": 6946,
      "fantastic": 6947,
      "astron": 6948,
      "testim": 6949,
      "informed": 6950,
      "becomes": 6951,
      "documentary": 6952,
      "votes": 6953,
      "ental": 6954,
      "Five": 6955,
      "Pop": 6956,
      "shouldn": 6957,
      "alternative": 6958,
      "utter": 6959,
      "cycle": 6960,
      "knocked": 6961,
      "powers": 6962,
      "explains": 6963,
      "Hampshire": 6964,
      "trend": 6965,
      "horrific": 6966,
      "racing": 6967,
      "kicked": 6968,
      "Qat": 6969,
      "itarian": 6970,
      "appreci": 6971,
      "birds": 6972,
      "Stone": 6973,
      "enjoying": 6974,
      "favorite": 6975,
      "distr": 6976,
      "bombing": 6977,
      "decor": 6978,
      "extraordinary": 6979,
      "assistance": 6980,
      "wra": 6981,
      "Free": 6982,
      "Hard": 6983,
      "vies": 6984,
      "poison": 6985,
      "Hillary": 6986,
      "sleeping": 6987,
      "judges": 6988,
      "preced": 6989,
      "Holland": 6990,
      "Though": 6991,
      "spell": 6992,
      "fruit": 6993,
      "burst": 6994,
      "Trafford": 6995,
      "pink": 6996,
      "FC": 6997,
      "Hunt": 6998,
      "Dallas": 6999,
      "compete": 7000,
      "remind": 7001,
      "Polit": 7002,
      "Asian": 7003,
      "Brazilian": 7004,
      "earn": 7005,
      "rescued": 7006,
      "grass": 7007,
      "bird": 7008,
      "relatively": 7009,
      "arriving": 7010,
      "umph": 7011,
      "Jimmy": 7012,
      "Broad": 7013,
      "Gill": 7014,
      "entirely": 7015,
      "asks": 7016,
      "conspiracy": 7017,
      "PC": 7018,
      "facilities": 7019,
      "Sub": 7020,
      "dispute": 7021,
      "essions": 7022,
      "Abbott": 7023,
      "solely": 7024,
      "ultimately": 7025,
      "Pacific": 7026,
      "trapped": 7027,
      "operate": 7028,
      "describes": 7029,
      "recommend": 7030,
      "milk": 7031,
      "defending": 7032,
      "1998": 7033,
      "incredibly": 7034,
      "reporter": 7035,
      "narrow": 7036,
      "bom": 7037,
      "zo": 7038,
      "athon": 7039,
      "drama": 7040,
      "guaran": 7041,
      "Tou": 7042,
      "intention": 7043,
      "intense": 7044,
      "Dave": 7045,
      "purpose": 7046,
      "Yesterday": 7047,
      "overseas": 7048,
      "NATO": 7049,
      "shoulder": 7050,
      "obtained": 7051,
      "grat": 7052,
      "credi": 7053,
      "Vill": 7054,
      "disappearance": 7055,
      "firms": 7056,
      "begins": 7057,
      "Sel": 7058,
      "apol": 7059,
      "subsequ": 7060,
      "Bad": 7061,
      "Celt": 7062,
      "Ell": 7063,
      "Mod": 7064,
      "stairs": 7065,
      "gam": 7066,
      "Okla": 7067,
      "theft": 7068,
      "prob": 7069,
      "Zimmerman": 7070,
      "chosen": 7071,
      "handle": 7072,
      "EN": 7073,
      "Bab": 7074,
      "rally": 7075,
      "posting": 7076,
      "bledon": 7077,
      "adopted": 7078,
      "reaching": 7079,
      "drinks": 7080,
      "permanent": 7081,
      "Missouri": 7082,
      "amoun": 7083,
      "iconic": 7084,
      "smile": 7085,
      "Where": 7086,
      "Clegg": 7087,
      "structure": 7088,
      "jun": 7089,
      "Laura": 7090,
      "repair": 7091,
      "Blair": 7092,
      "walls": 7093,
      "idespread": 7094,
      "analysis": 7095,
      "ocean": 7096,
      "Wimbledon": 7097,
      "Oklahom": 7098,
      "Head": 7099,
      "Robin": 7100,
      "fre": 7101,
      "solar": 7102,
      "Prev": 7103,
      "Society": 7104,
      "bathroom": 7105,
      "pig": 7106,
      "abdu": 7107,
      "Justin": 7108,
      "dedicated": 7109,
      "lined": 7110,
      "Your": 7111,
      "veled": 7112,
      "Bristol": 7113,
      "Wild": 7114,
      "Dur": 7115,
      "incent": 7116,
      "factory": 7117,
      "gift": 7118,
      "distress": 7119,
      "conce": 7120,
      "pound": 7121,
      "thin": 7122,
      "afr": 7123,
      "rard": 7124,
      "olas": 7125,
      "reporting": 7126,
      "Pre": 7127,
      "vin": 7128,
      "istrates": 7129,
      "withdraw": 7130,
      "posts": 7131,
      "Stoke": 7132,
      "vised": 7133,
      "characters": 7134,
      "presenter": 7135,
      "km": 7136,
      "shift": 7137,
      "oth": 7138,
      "matters": 7139,
      "festival": 7140,
      "communications": 7141,
      "Nad": 7142,
      "vig": 7143,
      "fires": 7144,
      "Commons": 7145,
      "unveiled": 7146,
      "writes": 7147,
      "breach": 7148,
      "celebrities": 7149,
      "maximum": 7150,
      "brilliant": 7151,
      "OW": 7152,
      "tons": 7153,
      "classic": 7154,
      "performing": 7155,
      "iven": 7156,
      "successfully": 7157,
      "Metro": 7158,
      "gment": 7159,
      "veget": 7160,
      "shares": 7161,
      "rit": 7162,
      "OS": 7163,
      "kel": 7164,
      "stitutional": 7165,
      "teeth": 7166,
      "Egyptian": 7167,
      "Fair": 7168,
      "aggressive": 7169,
      "63": 7170,
      "Ukrainian": 7171,
      "areness": 7172,
      "von": 7173,
      "ideas": 7174,
      "gue": 7175,
      "wounds": 7176,
      "apply": 7177,
      "sixth": 7178,
      "packed": 7179,
      "conclus": 7180,
      "lists": 7181,
      "taxes": 7182,
      "Oklahoma": 7183,
      "Dub": 7184,
      "specialist": 7185,
      "magn": 7186,
      "igned": 7187,
      "shed": 7188,
      "describe": 7189,
      "Academy": 7190,
      "thal": 7191,
      "thusi": 7192,
      "Power": 7193,
      "Major": 7194,
      "ingham": 7195,
      "lake": 7196,
      "ardo": 7197,
      "Hus": 7198,
      "Nico": 7199,
      "capacity": 7200,
      "twe": 7201,
      "Lib": 7202,
      "Cry": 7203,
      "Several": 7204,
      "Mitche": 7205,
      "demanded": 7206,
      "Tar": 7207,
      "colate": 7208,
      "Local": 7209,
      "Conservative": 7210,
      "panic": 7211,
      "Hodg": 7212,
      "Daw": 7213,
      "taught": 7214,
      "inn": 7215,
      "experiment": 7216,
      "Mas": 7217,
      "luck": 7218,
      "sli": 7219,
      "oter": 7220,
      "rural": 7221,
      "commitment": 7222,
      "entit": 7223,
      "sac": 7224,
      "Hope": 7225,
      "Amazon": 7226,
      "properties": 7227,
      "sector": 7228,
      "defended": 7229,
      "consequences": 7230,
      "ema": 7231,
      "interesting": 7232,
      "traff": 7233,
      "Arch": 7234,
      "casual": 7235,
      "accepting": 7236,
      "caf": 7237,
      "Sean": 7238,
      "windows": 7239,
      "ato": 7240,
      "tip": 7241,
      "sung": 7242,
      "prize": 7243,
      "attempting": 7244,
      "Cardiff": 7245,
      "implement": 7246,
      "Ocean": 7247,
      "bull": 7248,
      "Services": 7249,
      "types": 7250,
      "Mitchell": 7251,
      "archite": 7252,
      "preser": 7253,
      "afraid": 7254,
      "travelled": 7255,
      "sweet": 7256,
      "disappointed": 7257,
      "stim": 7258,
      "depression": 7259,
      "irty": 7260,
      "Cas": 7261,
      "devastating": 7262,
      "Mohammed": 7263,
      "finals": 7264,
      "911": 7265,
      "95": 7266,
      "Roll": 7267,
      "Ale": 7268,
      "childhood": 7269,
      "Edwards": 7270,
      "Hy": 7271,
      "joke": 7272,
      "Davies": 7273,
      "frame": 7274,
      "($": 7275,
      "extended": 7276,
      "Gi": 7277,
      "gor": 7278,
      "projects": 7279,
      "crucial": 7280,
      "Food": 7281,
      "Pass": 7282,
      "Transport": 7283,
      "cow": 7284,
      "campus": 7285,
      "72": 7286,
      "widespread": 7287,
      "enor": 7288,
      "arrests": 7289,
      "Cop": 7290,
      "chef": 7291,
      "notori": 7292,
      "concept": 7293,
      "anywhere": 7294,
      "opportunities": 7295,
      "contained": 7296,
      "Had": 7297,
      "beer": 7298,
      "Marine": 7299,
      "appointed": 7300,
      "testimony": 7301,
      "advent": 7302,
      "fel": 7303,
      "minster": 7304,
      "promote": 7305,
      "Woods": 7306,
      "phia": 7307,
      "Pay": 7308,
      "demanding": 7309,
      "Pot": 7310,
      "Stewart": 7311,
      "Luke": 7312,
      "Rodriguez": 7313,
      "sted": 7314,
      "battery": 7315,
      "Gerrard": 7316,
      "bat": 7317,
      "Swit": 7318,
      "Bruce": 7319,
      "offence": 7320,
      "appearing": 7321,
      "approval": 7322,
      "fewer": 7323,
      "wan": 7324,
      "cream": 7325,
      "inois": 7326,
      "cous": 7327,
      "Edin": 7328,
      "affiliate": 7329,
      "caution": 7330,
      "reward": 7331,
      "iland": 7332,
      "idelines": 7333,
      "Pers": 7334,
      "NASA": 7335,
      "Carter": 7336,
      "hell": 7337,
      "sect": 7338,
      "robbery": 7339,
      "registered": 7340,
      "Jeremy": 7341,
      "Vi": 7342,
      "orses": 7343,
      "athletes": 7344,
      "attending": 7345,
      "platform": 7346,
      "ifts": 7347,
      "Experts": 7348,
      "puts": 7349,
      "intend": 7350,
      "advance": 7351,
      "officially": 7352,
      "sugar": 7353,
      "bullet": 7354,
      "02": 7355,
      "orous": 7356,
      "compar": 7357,
      "odes": 7358,
      "tonight": 7359,
      "hired": 7360,
      "flowers": 7361,
      "listen": 7362,
      "Station": 7363,
      "shore": 7364,
      "haul": 7365,
      "mansion": 7366,
      "adelphia": 7367,
      "multi": 7368,
      "Anne": 7369,
      "Guard": 7370,
      "Munich": 7371,
      "Fran": 7372,
      "Crist": 7373,
      "Lisa": 7374,
      "overnight": 7375,
      "ando": 7376,
      "Administr": 7377,
      "gained": 7378,
      "Disney": 7379,
      "Ferr": 7380,
      "Deputy": 7381,
      "gow": 7382,
      "aler": 7383,
      "strateg": 7384,
      "checks": 7385,
      "Investigators": 7386,
      "Nig": 7387,
      "temperature": 7388,
      "Philadelphia": 7389,
      "60s": 7390,
      "temporary": 7391,
      "Illinois": 7392,
      "walks": 7393,
      "enthusi": 7394,
      "vet": 7395,
      "priority": 7396,
      "phan": 7397,
      "Live": 7398,
      "pleased": 7399,
      "asters": 7400,
      "Arm": 7401,
      "grandfather": 7402,
      "otherwise": 7403,
      "inez": 7404,
      "CBS": 7405,
      "Jean": 7406,
      "Osborne": 7407,
      "Glas": 7408,
      "Rangers": 7409,
      "profession": 7410,
      "abilities": 7411,
      "crying": 7412,
      "eval": 7413,
      "bris": 7414,
      "Brom": 7415,
      "Si": 7416,
      "Sandy": 7417,
      "bors": 7418,
      "agu": 7419,
      "links": 7420,
      "AS": 7421,
      "Pas": 7422,
      "clinic": 7423,
      "Southern": 7424,
      "Chancellor": 7425,
      "demands": 7426,
      "apology": 7427,
      "Lt": 7428,
      "lob": 7429,
      "ugs": 7430,
      "mart": 7431,
      "copy": 7432,
      "Amanda": 7433,
      "TH": 7434,
      "dd": 7435,
      "aboard": 7436,
      "Russell": 7437,
      "explos": 7438,
      "Scientists": 7439,
      "commentary": 7440,
      "eping": 7441,
      "Kay": 7442,
      "NS": 7443,
      "locations": 7444,
      "collected": 7445,
      "existing": 7446,
      "Rev": 7447,
      "yer": 7448,
      "Lincol": 7449,
      "athle": 7450,
      "shelter": 7451,
      "hob": 7452,
      "Alab": 7453,
      "itis": 7454,
      "oft": 7455,
      "spin": 7456,
      "positions": 7457,
      "Laden": 7458,
      "69": 7459,
      "Brooklyn": 7460,
      "hits": 7461,
      "closing": 7462,
      "cler": 7463,
      "awareness": 7464,
      "accompl": 7465,
      "killings": 7466,
      "Lincoln": 7467,
      "Gil": 7468,
      "Medic": 7469,
      "Tun": 7470,
      "Bloom": 7471,
      "pel": 7472,
      "sisters": 7473,
      "loves": 7474,
      "drone": 7475,
      "Friends": 7476,
      "Fre": 7477,
      "atically": 7478,
      "rush": 7479,
      "mud": 7480,
      "entr": 7481,
      "deals": 7482,
      "Fern": 7483,
      "Happ": 7484,
      "usive": 7485,
      "interviewed": 7486,
      "patrol": 7487,
      "Roger": 7488,
      "covering": 7489,
      "01": 7490,
      "Mario": 7491,
      "tape": 7492,
      "rated": 7493,
      "burning": 7494,
      "itary": 7495,
      "teenagers": 7496,
      "execution": 7497,
      "dale": 7498,
      "burned": 7499,
      "Fur": 7500,
      "factor": 7501,
      "til": 7502,
      "ridge": 7503,
      "cticut": 7504,
      "1997": 7505,
      "Aston": 7506,
      "sits": 7507,
      "nomin": 7508,
      "Connecticut": 7509,
      "Flo": 7510,
      "carbon": 7511,
      "78": 7512,
      "punishment": 7513,
      "Celtic": 7514,
      "convin": 7515,
      "clip": 7516,
      "chi": 7517,
      "liance": 7518,
      "independence": 7519,
      "guide": 7520,
      "delighted": 7521,
      "cited": 7522,
      "Fel": 7523,
      "Trans": 7524,
      "extensive": 7525,
      "feeding": 7526,
      "variety": 7527,
      "bizarre": 7528,
      "mere": 7529,
      "blank": 7530,
      "Pear": 7531,
      "Martinez": 7532,
      "cers": 7533,
      "Raf": 7534,
      "Enter": 7535,
      "cedes": 7536,
      "graphic": 7537,
      "Was": 7538,
      "clients": 7539,
      "entry": 7540,
      "inves": 7541,
      "restaurants": 7542,
      "Adams": 7543,
      "loud": 7544,
      "rot": 7545,
      "acknowledged": 7546,
      "pace": 7547,
      "120": 7548,
      "ambassador": 7549,
      "Marg": 7550,
      "Belgium": 7551,
      "Ye": 7552,
      "enormous": 7553,
      "updated": 7554,
      "Tam": 7555,
      "posite": 7556,
      "headquarters": 7557,
      "Aar": 7558,
      "toll": 7559,
      "cann": 7560,
      "resolution": 7561,
      "improved": 7562,
      "Hawai": 7563,
      "convinced": 7564,
      "excell": 7565,
      "movies": 7566,
      "taste": 7567,
      "Leg": 7568,
      "Cat": 7569,
      "cruel": 7570,
      "Heath": 7571,
      "icit": 7572,
      "Ward": 7573,
      "Having": 7574,
      "loving": 7575,
      "scape": 7576,
      "rists": 7577,
      "checked": 7578,
      "honour": 7579,
      "settlement": 7580,
      "McCain": 7581,
      "Seattle": 7582,
      "enez": 7583,
      "color": 7584,
      "companied": 7585,
      "facts": 7586,
      "***": 7587,
      "Philipp": 7588,
      "closure": 7589,
      "GB": 7590,
      "cancell": 7591,
      "dubbed": 7592,
      "alia": 7593,
      "etime": 7594,
      "succeed": 7595,
      "ili": 7596,
      "goods": 7597,
      "Alabama": 7598,
      "Tes": 7599,
      "infected": 7600,
      "drome": 7601,
      "impressed": 7602,
      "rie": 7603,
      "verted": 7604,
      "celebrated": 7605,
      "nett": 7606,
      "touched": 7607,
      "ls": 7608,
      "Marsh": 7609,
      "Portugal": 7610,
      "regional": 7611,
      "vy": 7612,
      "riding": 7613,
      "rehab": 7614,
      "firing": 7615,
      "shell": 7616,
      "sam": 7617,
      "spokesperson": 7618,
      "athy": 7619,
      "county": 7620,
      "Researchers": 7621,
      "regarding": 7622,
      "Did": 7623,
      "Row": 7624,
      "featuring": 7625,
      "loyal": 7626,
      "uine": 7627,
      "effectively": 7628,
      "Guardi": 7629,
      "rolled": 7630,
      "infect": 7631,
      "Micro": 7632,
      "exciting": 7633,
      "papers": 7634,
      "commander": 7635,
      "Inc": 7636,
      "hanging": 7637,
      "Les": 7638,
      "loyd": 7639,
      "Everyone": 7640,
      "Na": 7641,
      "promin": 7642,
      "bombs": 7643,
      "forcing": 7644,
      "Utah": 7645,
      "governments": 7646,
      "racial": 7647,
      "cancel": 7648,
      "emails": 7649,
      "wet": 7650,
      "breathing": 7651,
      "Cos": 7652,
      "wire": 7653,
      "protected": 7654,
      "delivery": 7655,
      "strange": 7656,
      "aired": 7657,
      "Democrat": 7658,
      "attered": 7659,
      "exclusive": 7660,
      "poverty": 7661,
      "application": 7662,
      "applied": 7663,
      "Cher": 7664,
      "courage": 7665,
      "youngest": 7666,
      "summit": 7667,
      "titles": 7668,
      "warrant": 7669,
      "Hodgson": 7670,
      "Wit": 7671,
      "otelli": 7672,
      "grees": 7673,
      "oles": 7674,
      "acks": 7675,
      "tories": 7676,
      "iron": 7677,
      "lean": 7678,
      "visits": 7679,
      "package": 7680,
      "ateful": 7681,
      "indicated": 7682,
      "Balotelli": 7683,
      "democracy": 7684,
      "icing": 7685,
      "tourist": 7686,
      "requires": 7687,
      "occasions": 7688,
      "Board": 7689,
      "criminals": 7690,
      "Mali": 7691,
      "Vis": 7692,
      "neur": 7693,
      "Switzer": 7694,
      "urses": 7695,
      "territory": 7696,
      "attached": 7697,
      "genuine": 7698,
      "traveling": 7699,
      "environmental": 7700,
      "regret": 7701,
      "experiences": 7702,
      "AR": 7703,
      "Glasgow": 7704,
      "eh": 7705,
      "uff": 7706,
      "civilian": 7707,
      "snap": 7708,
      "elsewhere": 7709,
      "dressing": 7710,
      "praised": 7711,
      "Westminster": 7712,
      "generally": 7713,
      "screaming": 7714,
      "attracted": 7715,
      "suits": 7716,
      "desire": 7717,
      "brid": 7718,
      "deport": 7719,
      "supplies": 7720,
      "Duncan": 7721,
      "QPR": 7722,
      "Switzerland": 7723,
      "Gab": 7724,
      "Gro": 7725,
      "missions": 7726,
      "ricane": 7727,
      "funded": 7728,
      "Thanks": 7729,
      "Aff": 7730,
      "degrees": 7731,
      "Charlot": 7732,
      "accompanied": 7733,
      "Rebe": 7734,
      "itage": 7735,
      "classes": 7736,
      "typically": 7737,
      "Cho": 7738,
      "1980s": 7739,
      "Amy": 7740,
      "owa": 7741,
      "liked": 7742,
      "sheriff": 7743,
      "thetic": 7744,
      "Secret": 7745,
      "suspicious": 7746,
      "olly": 7747,
      "liqu": 7748,
      "legit": 7749,
      "funny": 7750,
      "Pres": 7751,
      "Bagh": 7752,
      "Py": 7753,
      "organisation": 7754,
      "endum": 7755,
      "Pent": 7756,
      "Prote": 7757,
      "neighbours": 7758,
      "advised": 7759,
      "Ret": 7760,
      "hiding": 7761,
      "Howard": 7762,
      "condemned": 7763,
      "Lane": 7764,
      "stronger": 7765,
      "manage": 7766,
      "Special": 7767,
      "represents": 7768,
      "mole": 7769,
      "Leban": 7770,
      "cord": 7771,
      "utions": 7772,
      "Rem": 7773,
      "teens": 7774,
      "satellite": 7775,
      "acular": 7776,
      "pressing": 7777,
      "searched": 7778,
      "CH": 7779,
      "ighton": 7780,
      "cam": 7781,
      "encouraged": 7782,
      "affairs": 7783,
      "alert": 7784,
      "Susan": 7785,
      "Cuba": 7786,
      "Father": 7787,
      "hosts": 7788,
      "brown": 7789,
      "rugby": 7790,
      "crazy": 7791,
      "barely": 7792,
      "seed": 7793,
      "greet": 7794,
      "RO": 7795,
      "Snowden": 7796,
      "winners": 7797,
      "deem": 7798,
      "hase": 7799,
      "Stuart": 7800,
      "producer": 7801,
      "teaching": 7802,
      "stron": 7803,
      "aga": 7804,
      "voting": 7805,
      "ffield": 7806,
      "relationships": 7807,
      "combined": 7808,
      "throwing": 7809,
      "values": 7810,
      "meetings": 7811,
      "Mos": 7812,
      "remarkable": 7813,
      "basketball": 7814,
      "glasses": 7815,
      "stroke": 7816,
      "inappropriate": 7817,
      "studio": 7818,
      "Jesus": 7819,
      "races": 7820,
      "cricket": 7821,
      "veterans": 7822,
      "homeless": 7823,
      "Emer": 7824,
      "entering": 7825,
      "Thailand": 7826,
      "backs": 7827,
      "sentencing": 7828,
      "HIV": 7829,
      "mechan": 7830,
      "mixed": 7831,
      "Ref": 7832,
      "spons": 7833,
      "spray": 7834,
      "deny": 7835,
      "celebrating": 7836,
      "GM": 7837,
      "icial": 7838,
      "Collins": 7839,
      "Bron": 7840,
      "Cornwall": 7841,
      "Hills": 7842,
      "Han": 7843,
      "Garcia": 7844,
      "Thor": 7845,
      "Griff": 7846,
      "detailed": 7847,
      "imate": 7848,
      "meals": 7849,
      "chocolate": 7850,
      "nobody": 7851,
      "renew": 7852,
      "Fall": 7853,
      "smil": 7854,
      "confront": 7855,
      "counsel": 7856,
      "apps": 7857,
      "Officer": 7858,
      "stations": 7859,
      "Barbar": 7860,
      "anybody": 7861,
      "61": 7862,
      "Cele": 7863,
      "thick": 7864,
      "Business": 7865,
      "Brend": 7866,
      "oldest": 7867,
      "onso": 7868,
      "1970s": 7869,
      "ethnic": 7870,
      "opposed": 7871,
      "filming": 7872,
      "Dubai": 7873,
      "Ky": 7874,
      "render": 7875,
      "sensitive": 7876,
      "Vide": 7877,
      "gunman": 7878,
      "Education": 7879,
      "Iowa": 7880,
      "sounds": 7881,
      "explor": 7882,
      "counted": 7883,
      "Rome": 7884,
      "Notting": 7885,
      "Viet": 7886,
      "Wis": 7887,
      "Crystal": 7888,
      "enny": 7889,
      "suggesting": 7890,
      "opponents": 7891,
      "Lor": 7892,
      "resulted": 7893,
      "divers": 7894,
      "1990s": 7895,
      "voy": 7896,
      "Low": 7897,
      "Aaron": 7898,
      "manner": 7899,
      "Slo": 7900,
      "flooding": 7901,
      "grabbed": 7902,
      "taxi": 7903,
      "Winter": 7904,
      "referendum": 7905,
      "represented": 7906,
      "cca": 7907,
      "Katie": 7908,
      "bacter": 7909,
      "cultural": 7910,
      "Jac": 7911,
      "detectives": 7912,
      "Sheffield": 7913,
      "airo": 7914,
      "assaulted": 7915,
      "Derby": 7916,
      "Edinburgh": 7917,
      "wealthy": 7918,
      "Ay": 7919,
      "Flight": 7920,
      "artists": 7921,
      "horses": 7922,
      "asion": 7923,
      "firefighters": 7924,
      "keeps": 7925,
      "clock": 7926,
      "containing": 7927,
      "sustain": 7928,
      "nox": 7929,
      "Around": 7930,
      "Baghdad": 7931,
      "neither": 7932,
      "fas": 7933,
      "slo": 7934,
      "obvious": 7935,
      "bones": 7936,
      "ologists": 7937,
      "enh": 7938,
      "predicted": 7939,
      "interviews": 7940,
      "branch": 7941,
      "cert": 7942,
      "dependent": 7943,
      "upper": 7944,
      "fishing": 7945,
      "colleague": 7946,
      "moral": 7947,
      "BM": 7948,
      "inations": 7949,
      "Atlet": 7950,
      "slowly": 7951,
      "fab": 7952,
      "crossing": 7953,
      "anonymous": 7954,
      "advertising": 7955,
      "pron": 7956,
      "portra": 7957,
      "motion": 7958,
      "contains": 7959,
      "blocked": 7960,
      "medication": 7961,
      "Right": 7962,
      "investigations": 7963,
      "organizations": 7964,
      "therefore": 7965,
      "Beckham": 7966,
      "ridic": 7967,
      "portray": 7968,
      "accusations": 7969,
      "Gad": 7970,
      "univers": 7971,
      "sized": 7972,
      "1996": 7973,
      "volunteers": 7974,
      "roid": 7975,
      "competitive": 7976,
      "reforms": 7977,
      "manufactur": 7978,
      "McDonald": 7979,
      "berry": 7980,
      "cuit": 7981,
      "stages": 7982,
      "tracks": 7983,
      "aya": 7984,
      "Mercedes": 7985,
      "chez": 7986,
      "crimination": 7987,
      "Samsung": 7988,
      "Berg": 7989,
      "Chile": 7990,
      "graduate": 7991,
      "olph": 7992,
      "settled": 7993,
      "Ul": 7994,
      "Treas": 7995,
      "politan": 7996,
      "branded": 7997,
      "vowed": 7998,
      "strongly": 7999,
      "Swiss": 8000,
      "Sudan": 8001,
      "idi": 8002,
      "usal": 8003,
      "1994": 8004,
      "Kenya": 8005,
      "ordeal": 8006,
      "finds": 8007,
      "united": 8008,
      "fiel": 8009,
      "plate": 8010,
      "evolution": 8011,
      "conven": 8012,
      "collapse": 8013,
      "Beat": 8014,
      "contrast": 8015,
      "Gall": 8016,
      "compound": 8017,
      "Bash": 8018,
      "Hot": 8019,
      "shr": 8020,
      "probe": 8021,
      "procedures": 8022,
      "harder": 8023,
      "stole": 8024,
      "acad": 8025,
      "striking": 8026,
      "memories": 8027,
      "sporting": 8028,
      "outcome": 8029,
      "bru": 8030,
      "Juan": 8031,
      "glam": 8032,
      "speaks": 8033,
      "aide": 8034,
      "ups": 8035,
      "importance": 8036,
      "reads": 8037,
      "Defence": 8038,
      "Soph": 8039,
      "Dick": 8040,
      "hunting": 8041,
      "brings": 8042,
      "Administration": 8043,
      "falls": 8044,
      "phed": 8045,
      "persu": 8046,
      "handling": 8047,
      "migrants": 8048,
      "bust": 8049,
      "religion": 8050,
      "brave": 8051,
      "anticip": 8052,
      "please": 8053,
      "vous": 8054,
      "technical": 8055,
      "Atletico": 8056,
      "diplomatic": 8057,
      "trophy": 8058,
      "amo": 8059,
      "eler": 8060,
      "rett": 8061,
      "Phillips": 8062,
      "Castro": 8063,
      "vant": 8064,
      "ramp": 8065,
      "Spring": 8066,
      "stig": 8067,
      "curren": 8068,
      "Az": 8069,
      "negotiations": 8070,
      "referring": 8071,
      "opposite": 8072,
      "Others": 8073,
      "electricity": 8074,
      "theory": 8075,
      "convict": 8076,
      "theat": 8077,
      "allies": 8078,
      "monitoring": 8079,
      "Rand": 8080,
      "aer": 8081,
      "Vol": 8082,
      "faster": 8083,
      "peaceful": 8084,
      "sink": 8085,
      "skull": 8086,
      "substant": 8087,
      "eleph": 8088,
      "speculation": 8089,
      "materials": 8090,
      "sustained": 8091,
      "oms": 8092,
      "bitter": 8093,
      "Sanchez": 8094,
      "creation": 8095,
      "industrial": 8096,
      "Nelson": 8097,
      "cruise": 8098,
      "Gib": 8099,
      "Sad": 8100,
      "gt": 8101,
      "Sk": 8102,
      "ighth": 8103,
      "comedy": 8104,
      "Hit": 8105,
      "waited": 8106,
      "ITV": 8107,
      "creative": 8108,
      "discussed": 8109,
      "celebration": 8110,
      "mood": 8111,
      "Armstrong": 8112,
      "icate": 8113,
      "shine": 8114,
      "aside": 8115,
      "chicken": 8116,
      "answers": 8117,
      "Reid": 8118,
      "Maryland": 8119,
      "requests": 8120,
      ".-": 8121,
      "Pis": 8122,
      "distin": 8123,
      "tens": 8124,
      "trips": 8125,
      "expecting": 8126,
      "crews": 8127,
      "toilet": 8128,
      "chat": 8129,
      "Welsh": 8130,
      "referee": 8131,
      "Margaret": 8132,
      "entitled": 8133,
      "fet": 8134,
      "argue": 8135,
      "mund": 8136,
      "witnessed": 8137,
      "Civil": 8138,
      "anded": 8139,
      "Mandela": 8140,
      "fortunate": 8141,
      "Book": 8142,
      "?’": 8143,
      "offices": 8144,
      "Arabia": 8145,
      "Warren": 8146,
      "Hamas": 8147,
      "lee": 8148,
      "Inde": 8149,
      "Lion": 8150,
      "disabled": 8151,
      "gear": 8152,
      "activist": 8153,
      "posure": 8154,
      "inspiration": 8155,
      ".)": 8156,
      "confron": 8157,
      "Wol": 8158,
      "Ker": 8159,
      "directed": 8160,
      "5million": 8161,
      "rice": 8162,
      "orse": 8163,
      "ora": 8164,
      "Greek": 8165,
      "pros": 8166,
      "heim": 8167,
      "roit": 8168,
      "Barbara": 8169,
      "awards": 8170,
      "tow": 8171,
      "Fund": 8172,
      "cheek": 8173,
      "mini": 8174,
      "bosses": 8175,
      "Ol": 8176,
      "SU": 8177,
      "Stat": 8178,
      "secut": 8179,
      "estimates": 8180,
      "mystery": 8181,
      "indict": 8182,
      "fitted": 8183,
      "kit": 8184,
      "error": 8185,
      "ami": 8186,
      "significantly": 8187,
      "Microsoft": 8188,
      "bean": 8189,
      "debris": 8190,
      "stamp": 8191,
      "hotels": 8192,
      "Authority": 8193,
      "Govern": 8194,
      "Hend": 8195,
      "chap": 8196,
      "strip": 8197,
      "lawmakers": 8198,
      "Helen": 8199,
      "astro": 8200,
      "Sgt": 8201,
      "edition": 8202,
      "purchase": 8203,
      "icks": 8204,
      "computers": 8205,
      "Bull": 8206,
      "channel": 8207,
      "toler": 8208,
      "transferred": 8209,
      "Night": 8210,
      "istle": 8211,
      "factors": 8212,
      "march": 8213,
      "crowds": 8214,
      "Ku": 8215,
      "Rub": 8216,
      "Staff": 8217,
      "equival": 8218,
      "axy": 8219,
      "switch": 8220,
      "Charlotte": 8221,
      "moun": 8222,
      "stan": 8223,
      "towns": 8224,
      "ighter": 8225,
      "Rachel": 8226,
      "twin": 8227,
      "pour": 8228,
      "Captain": 8229,
      "CO": 8230,
      "shame": 8231,
      "marketing": 8232,
      "payment": 8233,
      "McL": 8234,
      "cats": 8235,
      "paint": 8236,
      "onna": 8237,
      "AN": 8238,
      "Domin": 8239,
      "Rice": 8240,
      "partnership": 8241,
      "begun": 8242,
      "wage": 8243,
      "keys": 8244,
      "household": 8245,
      "frag": 8246,
      "fract": 8247,
      "Devon": 8248,
      "Hud": 8249,
      "oming": 8250,
      "representing": 8251,
      "resigned": 8252,
      "delayed": 8253,
      "Mount": 8254,
      "Berlin": 8255,
      "Commissioner": 8256,
      "retirement": 8257,
      "Mack": 8258,
      "Shaw": 8259,
      "brary": 8260,
      "units": 8261,
      "Video": 8262,
      "Bond": 8263,
      "Detroit": 8264,
      "constantly": 8265,
      "smail": 8266,
      "Contr": 8267,
      "breakfast": 8268,
      "Clarke": 8269,
      "aspect": 8270,
      "1995": 8271,
      "cheap": 8272,
      "networks": 8273,
      "Grant": 8274,
      "Paren": 8275,
      "studying": 8276,
      "abortion": 8277,
      "fame": 8278,
      "ration": 8279,
      "oned": 8280,
      "obl": 8281,
      "todd": 8282,
      "drawing": 8283,
      "draft": 8284,
      "erie": 8285,
      "Travel": 8286,
      "stealing": 8287,
      "greg": 8288,
      "amounts": 8289,
      "disgust": 8290,
      "popularity": 8291,
      "objects": 8292,
      "fortune": 8293,
      "flames": 8294,
      "assass": 8295,
      "reception": 8296,
      "songs": 8297,
      "Box": 8298,
      "Golden": 8299,
      "enda": 8300,
      "traveled": 8301,
      "humanitarian": 8302,
      "ximately": 8303,
      "diabet": 8304,
      "Class": 8305,
      "umes": 8306,
      "regon": 8307,
      "personally": 8308,
      "88": 8309,
      "dule": 8310,
      "Malaysia": 8311,
      "Safety": 8312,
      "regulations": 8313,
      "optim": 8314,
      "Tok": 8315,
      "Cabinet": 8316,
      "Oregon": 8317,
      "rec": 8318,
      "Barcl": 8319,
      "Ban": 8320,
      "azz": 8321,
      "viewed": 8322,
      "Pentagon": 8323,
      "zero": 8324,
      "uniform": 8325,
      "ippi": 8326,
      "tren": 8327,
      "locals": 8328,
      "pulling": 8329,
      "Pho": 8330,
      "Nazi": 8331,
      "sufficient": 8332,
      "Poland": 8333,
      "nurses": 8334,
      "emble": 8335,
      "forever": 8336,
      "Plan": 8337,
      "achieved": 8338,
      "organis": 8339,
      "attorneys": 8340,
      "communication": 8341,
      "ilst": 8342,
      "smashed": 8343,
      "pilots": 8344,
      "Bailey": 8345,
      "qualified": 8346,
      "Mountain": 8347,
      "twins": 8348,
      "Spurs": 8349,
      "Cu": 8350,
      "Crit": 8351,
      "Surrey": 8352,
      "tweets": 8353,
      "Isa": 8354,
      "kers": 8355,
      "cession": 8356,
      "Nottingham": 8357,
      "essing": 8358,
      "selection": 8359,
      "medicine": 8360,
      "TS": 8361,
      "escal": 8362,
      "actual": 8363,
      "tired": 8364,
      "rat": 8365,
      "fli": 8366,
      "spectacular": 8367,
      "Bos": 8368,
      "warnings": 8369,
      "pages": 8370,
      "equivalent": 8371,
      "lain": 8372,
      "Biden": 8373,
      "tel": 8374,
      "missile": 8375,
      "representative": 8376,
      "flow": 8377,
      "garage": 8378,
      "extent": 8379,
      "Case": 8380,
      "cub": 8381,
      "ima": 8382,
      "Ca": 8383,
      "odds": 8384,
      "Morning": 8385,
      "holes": 8386,
      "constitutional": 8387,
      "Sl": 8388,
      "Keith": 8389,
      "inner": 8390,
      "Hawaii": 8391,
      "painted": 8392,
      "gage": 8393,
      "sail": 8394,
      "torture": 8395,
      "RE": 8396,
      "horror": 8397,
      "dancing": 8398,
      "imprison": 8399,
      "belt": 8400,
      "discrimination": 8401,
      "transplant": 8402,
      "roughly": 8403,
      "Mississ": 8404,
      "lessons": 8405,
      "flown": 8406,
      "Sn": 8407,
      "throat": 8408,
      "absence": 8409,
      "blaze": 8410,
      "uations": 8411,
      "division": 8412,
      "pocket": 8413,
      "marine": 8414,
      "Sovi": 8415,
      "acking": 8416,
      "irates": 8417,
      "eneath": 8418,
      "dial": 8419,
      "boats": 8420,
      "........": 8421,
      "ministry": 8422,
      "corporate": 8423,
      "escort": 8424,
      "Vo": 8425,
      "Tennes": 8426,
      "everywhere": 8427,
      "nest": 8428,
      "frequently": 8429,
      "jurors": 8430,
      "restrictions": 8431,
      "fields": 8432,
      "Sony": 8433,
      "transp": 8434,
      "Eve": 8435,
      "Jong": 8436,
      "detention": 8437,
      "specifically": 8438,
      "imposed": 8439,
      "alarm": 8440,
      "targeting": 8441,
      "Key": 8442,
      "cycling": 8443,
      "aven": 8444,
      "emotion": 8445,
      "Fro": 8446,
      "rounds": 8447,
      "vard": 8448,
      "viv": 8449,
      "typical": 8450,
      "Louisiana": 8451,
      "ius": 8452,
      "ppers": 8453,
      "urgent": 8454,
      "riots": 8455,
      "smartphone": 8456,
      "headlines": 8457,
      "ourselves": 8458,
      "rocks": 8459,
      "exhibition": 8460,
      "proceedings": 8461,
      "IM": 8462,
      "Eastern": 8463,
      "Victim": 8464,
      "Midlands": 8465,
      "Downing": 8466,
      "unfair": 8467,
      "Minnes": 8468,
      "ography": 8469,
      "Ton": 8470,
      "uay": 8471,
      "Mississippi": 8472,
      "trains": 8473,
      "earthquake": 8474,
      "Lawrence": 8475,
      "Ven": 8476,
      "bread": 8477,
      "Made": 8478,
      "diam": 8479,
      "crossed": 8480,
      "leep": 8481,
      "consistent": 8482,
      "Anim": 8483,
      "scientific": 8484,
      "holidays": 8485,
      "supermarket": 8486,
      "outfit": 8487,
      "viral": 8488,
      "recovering": 8489,
      "reven": 8490,
      "bullying": 8491,
      "Britons": 8492,
      "analyst": 8493,
      "QC": 8494,
      "Islamist": 8495,
      "Qatar": 8496,
      "prohib": 8497,
      "foods": 8498,
      "addressed": 8499,
      "Adri": 8500,
      "Ted": 8501,
      "Austin": 8502,
      "conced": 8503,
      "painful": 8504,
      "bottles": 8505,
      "Ry": 8506,
      "knock": 8507,
      "Kansas": 8508,
      "Liz": 8509,
      "afterwards": 8510,
      "defensive": 8511,
      "select": 8512,
      "Freed": 8513,
      "treating": 8514,
      "isan": 8515,
      "balls": 8516,
      "asty": 8517,
      "!!": 8518,
      "Urug": 8519,
      "Form": 8520,
      "Emily": 8521,
      "peak": 8522,
      "oting": 8523,
      "amedics": 8524,
      "NBA": 8525,
      "Minnesota": 8526,
      "ec": 8527,
      "noise": 8528,
      "Celebr": 8529,
      "mainly": 8530,
      "eggs": 8531,
      "Sweden": 8532,
      "safely": 8533,
      "ING": 8534,
      "proto": 8535,
      "coroner": 8536,
      "flash": 8537,
      "welcomed": 8538,
      "websites": 8539,
      "Uruguay": 8540,
      "attitude": 8541,
      "iatric": 8542,
      "Pictured": 8543,
      "pets": 8544,
      "raph": 8545,
      "astru": 8546,
      "idents": 8547,
      "Maybe": 8548,
      "Cir": 8549,
      "bark": 8550,
      "Fest": 8551,
      "kidnapping": 8552,
      "adviser": 8553,
      "Emp": 8554,
      "deemed": 8555,
      "nervous": 8556,
      "Roma": 8557,
      "polls": 8558,
      "Colombia": 8559,
      "issa": 8560,
      "appointment": 8561,
      "taxpayers": 8562,
      "exit": 8563,
      "Obam": 8564,
      "eor": 8565,
      "reference": 8566,
      "eu": 8567,
      "Barry": 8568,
      "Federer": 8569,
      "personality": 8570,
      "kilome": 8571,
      "Ald": 8572,
      "breaks": 8573,
      "encer": 8574,
      "Forest": 8575,
      "Chan": 8576,
      "militant": 8577,
      "picking": 8578,
      "ths": 8579,
      "stretch": 8580,
      "Bri": 8581,
      "managing": 8582,
      "criticized": 8583,
      "physically": 8584,
      "udes": 8585,
      "jection": 8586,
      "concert": 8587,
      "lovely": 8588,
      "inmates": 8589,
      "tout": 8590,
      "feelings": 8591,
      "deployed": 8592,
      "Alaska": 8593,
      "backing": 8594,
      "nights": 8595,
      "mentioned": 8596,
      "mature": 8597,
      "Oliver": 8598,
      "lb": 8599,
      "smell": 8600,
      "probation": 8601,
      "moto": 8602,
      "survival": 8603,
      "salary": 8604,
      "Short": 8605,
      "wildlife": 8606,
      "redi": 8607,
      "Ta": 8608,
      "vs": 8609,
      "Project": 8610,
      "discussion": 8611,
      "Nigel": 8612,
      "aggrav": 8613,
      "Silver": 8614,
      "esity": 8615,
      "Latin": 8616,
      "Tennessee": 8617,
      "photographed": 8618,
      "uncle": 8619,
      "Serge": 8620,
      "Indonesia": 8621,
      "ambit": 8622,
      "ierra": 8623,
      "grace": 8624,
      "donations": 8625,
      "ballo": 8626,
      "rarely": 8627,
      "Tsar": 8628,
      "Somalia": 8629,
      "beneath": 8630,
      "silence": 8631,
      "businessman": 8632,
      "hosted": 8633,
      "minority": 8634,
      "Pistori": 8635,
      "71": 8636,
      "Opin": 8637,
      "Wy": 8638,
      "abis": 8639,
      "Murphy": 8640,
      "Ful": 8641,
      "ims": 8642,
      "rolling": 8643,
      "attr": 8644,
      "realized": 8645,
      "nd": 8646,
      "astructure": 8647,
      "Agu": 8648,
      "cano": 8649,
      "Dog": 8650,
      "grateful": 8651,
      "ulture": 8652,
      "rehen": 8653,
      "Thank": 8654,
      "Dean": 8655,
      "Pere": 8656,
      "cloud": 8657,
      "nightm": 8658,
      "Sul": 8659,
      "tos": 8660,
      "spr": 8661,
      "operated": 8662,
      "Hundreds": 8663,
      "Savile": 8664,
      "Div": 8665,
      "terrif": 8666,
      "Darren": 8667,
      "fits": 8668,
      "controls": 8669,
      "citing": 8670,
      "Stock": 8671,
      "lover": 8672,
      "parked": 8673,
      "Venez": 8674,
      "Pistorius": 8675,
      "Berry": 8676,
      "ST": 8677,
      "zes": 8678,
      "folk": 8679,
      "Seven": 8680,
      "booked": 8681,
      "Brendan": 8682,
      "advanced": 8683,
      "combination": 8684,
      "idency": 8685,
      "bears": 8686,
      "neighbors": 8687,
      "igation": 8688,
      "promising": 8689,
      "powered": 8690,
      "telephone": 8691,
      "entertainment": 8692,
      "resem": 8693,
      "yce": 8694,
      "recommended": 8695,
      "footballer": 8696,
      "leton": 8697,
      "50s": 8698,
      "McIl": 8699,
      "Vlad": 8700,
      "inf": 8701,
      "vens": 8702,
      "RC": 8703,
      "ician": 8704,
      "hers": 8705,
      "survivors": 8706,
      "uters": 8707,
      "studied": 8708,
      "Mull": 8709,
      "pic": 8710,
      "III": 8711,
      "overwhelming": 8712,
      "Later": 8713,
      "illegally": 8714,
      "Memor": 8715,
      "ien": 8716,
      "sures": 8717,
      "enemy": 8718,
      "mont": 8719,
      "Ark": 8720,
      "baseball": 8721,
      "roles": 8722,
      "reasonable": 8723,
      "tin": 8724,
      "acing": 8725,
      "shadow": 8726,
      "Thatcher": 8727,
      "Nether": 8728,
      "hundred": 8729,
      "perfectly": 8730,
      "Haz": 8731,
      "coat": 8732,
      "cousin": 8733,
      "Witness": 8734,
      "executed": 8735,
      "Student": 8736,
      "Venezuel": 8737,
      "rical": 8738,
      "approximately": 8739,
      "ios": 8740,
      "yach": 8741,
      "Tokyo": 8742,
      "Ukip": 8743,
      "jan": 8744,
      "glas": 8745,
      "destination": 8746,
      "spots": 8747,
      "license": 8748,
      "elite": 8749,
      "confessed": 8750,
      "managers": 8751,
      "excellent": 8752,
      "Manuel": 8753,
      "Por": 8754,
      "Louise": 8755,
      "iture": 8756,
      "fier": 8757,
      "crete": 8758,
      "Detective": 8759,
      "woke": 8760,
      "lowest": 8761,
      "mistakes": 8762,
      "somewhere": 8763,
      "midfield": 8764,
      "investors": 8765,
      "Buckingham": 8766,
      "lifetime": 8767,
      "Burnley": 8768,
      "wrapped": 8769,
      "comprehen": 8770,
      "performances": 8771,
      "ikh": 8772,
      "Thousands": 8773,
      "xture": 8774,
      "answered": 8775,
      "unemployment": 8776,
      "cuff": 8777,
      "collision": 8778,
      "politician": 8779,
      "Columb": 8780,
      "nity": 8781,
      "tensions": 8782,
      "angered": 8783,
      "haw": 8784,
      "fright": 8785,
      "repre": 8786,
      "fundament": 8787,
      "Neigh": 8788,
      "licence": 8789,
      "1992": 8790,
      "Sierra": 8791,
      "assem": 8792,
      "returns": 8793,
      "jacket": 8794,
      "McIlroy": 8795,
      "Opinion": 8796,
      "79": 8797,
      "toug": 8798,
      "tools": 8799,
      "Wa": 8800,
      "Appe": 8801,
      "decline": 8802,
      "ulty": 8803,
      "uan": 8804,
      "Douglas": 8805,
      "aston": 8806,
      "challenging": 8807,
      "Moyes": 8808,
      "fault": 8809,
      "rensic": 8810,
      "1993": 8811,
      "73": 8812,
      "cyc": 8813,
      "pending": 8814,
      "hacking": 8815,
      "elig": 8816,
      "Ag": 8817,
      "tent": 8818,
      "Stra": 8819,
      "designs": 8820,
      "entrance": 8821,
      "manslaughter": 8822,
      "AP": 8823,
      "hafi": 8824,
      "Ahmed": 8825,
      "glad": 8826,
      "74": 8827,
      "carefully": 8828,
      "encouraging": 8829,
      "consultant": 8830,
      "valuable": 8831,
      "tes": 8832,
      "quoted": 8833,
      "acey": 8834,
      "battling": 8835,
      "tattoo": 8836,
      "pronounced": 8837,
      "sacked": 8838,
      "Bowl": 8839,
      "Marco": 8840,
      "Barclays": 8841,
      "Vice": 8842,
      "stunned": 8843,
      "oxy": 8844,
      "hammer": 8845,
      "boxes": 8846,
      "Powell": 8847,
      "donated": 8848,
      "Gadhafi": 8849,
      "clashes": 8850,
      "engineer": 8851,
      "questioning": 8852,
      "ignored": 8853,
      "Diana": 8854,
      "Antonio": 8855,
      "desc": 8856,
      "Soviet": 8857,
      "lod": 8858,
      "regions": 8859,
      "furn": 8860,
      "ighed": 8861,
      "shirts": 8862,
      "Knox": 8863,
      "Treasury": 8864,
      "adequ": 8865,
      "intervention": 8866,
      "forth": 8867,
      "practices": 8868,
      "deserve": 8869,
      "mm": 8870,
      "itable": 8871,
      "surgeon": 8872,
      "Kyle": 8873,
      "Beng": 8874,
      "subs": 8875,
      "indeed": 8876,
      "Holmes": 8877,
      "involves": 8878,
      "departure": 8879,
      "consumer": 8880,
      "veland": 8881,
      "Gray": 8882,
      "profits": 8883,
      "Krist": 8884,
      "leaked": 8885,
      "warn": 8886,
      "cheer": 8887,
      "Pris": 8888,
      "ulations": 8889,
      "lessly": 8890,
      "Sussex": 8891,
      "EC": 8892,
      "Gon": 8893,
      "appeals": 8894,
      "selected": 8895,
      "recruit": 8896,
      "dropping": 8897,
      "Netherlands": 8898,
      "cake": 8899,
      "increases": 8900,
      "youngsters": 8901,
      "sels": 8902,
      "singing": 8903,
      "admitting": 8904,
      "infrastructure": 8905,
      "depict": 8906,
      "residence": 8907,
      "cliff": 8908,
      "Bradley": 8909,
      "fierce": 8910,
      "\".": 8911,
      "sentences": 8912,
      "assets": 8913,
      "Rebecca": 8914,
      "ati": 8915,
      "forest": 8916,
      "ingredi": 8917,
      "realise": 8918,
      "comparison": 8919,
      "Shel": 8920,
      "nan": 8921,
      "apore": 8922,
      "phic": 8923,
      "Gh": 8924,
      "kidney": 8925,
      "Hon": 8926,
      "constru": 8927,
      "thir": 8928,
      "institut": 8929,
      "Serg": 8930,
      "Kingdom": 8931,
      "congressional": 8932,
      "offenders": 8933,
      "Libyan": 8934,
      "harassment": 8935,
      "phil": 8936,
      "Android": 8937,
      "treatments": 8938,
      "Commun": 8939,
      "raged": 8940,
      "Jun": 8941,
      "upcoming": 8942,
      "phenomen": 8943,
      "prol": 8944,
      "lbs": 8945,
      "Arth": 8946,
      "electronic": 8947,
      "blings": 8948,
      "Singapore": 8949,
      "fles": 8950,
      "guidelines": 8951,
      "Kentucky": 8952,
      "oke": 8953,
      "protecting": 8954,
      "griev": 8955,
      "chaos": 8956,
      "dominated": 8957,
      "Cus": 8958,
      "foundation": 8959,
      "Julie": 8960,
      "Spencer": 8961,
      "Magistrates": 8962,
      "CS": 8963,
      "Heart": 8964,
      "secured": 8965,
      "Cleveland": 8966,
      "Hannah": 8967,
      "embassy": 8968,
      "purchased": 8969,
      "soil": 8970,
      "aims": 8971,
      "dock": 8972,
      "View": 8973,
      "seasons": 8974,
      "sued": 8975,
      "Sportsmail": 8976,
      "ranked": 8977,
      "separated": 8978,
      "eva": 8979,
      "Somer": 8980,
      "3D": 8981,
      "legacy": 8982,
      "ading": 8983,
      "prominent": 8984,
      "carries": 8985,
      "Denver": 8986,
      "www": 8987,
      "Simpson": 8988,
      "emphas": 8989,
      "trafficking": 8990,
      "Tories": 8991,
      "Indiana": 8992,
      "uncertain": 8993,
      "Avenue": 8994,
      "Ney": 8995,
      "wheelchair": 8996,
      "76": 8997,
      "elimin": 8998,
      "Shi": 8999,
      "dragged": 9000,
      "Bun": 9001,
      "leans": 9002,
      "abe": 9003,
      "torm": 9004,
      "Tsarna": 9005,
      "passes": 9006,
      "Next": 9007,
      "murders": 9008,
      "zoo": 9009,
      "promises": 9010,
      "stup": 9011,
      "ills": 9012,
      "Tesco": 9013,
      "Boeing": 9014,
      "weighed": 9015,
      "vigil": 9016,
      "extend": 9017,
      "triumph": 9018,
      "angel": 9019,
      "Crow": 9020,
      "gathering": 9021,
      "Sometimes": 9022,
      "Serb": 9023,
      "blocks": 9024,
      "uties": 9025,
      "Djok": 9026,
      "instance": 9027,
      "Ivan": 9028,
      "exposure": 9029,
      "scra": 9030,
      "ucker": 9031,
      "1990": 9032,
      "boun": 9033,
      "muscle": 9034,
      "1million": 9035,
      "Lauren": 9036,
      "Such": 9037,
      "Network": 9038,
      "beck": 9039,
      "seventh": 9040,
      "cheese": 9041,
      "bite": 9042,
      "Ronald": 9043,
      "youngster": 9044,
      "Nancy": 9045,
      "litter": 9046,
      "Lucy": 9047,
      "smugg": 9048,
      "grey": 9049,
      "imir": 9050,
      "ione": 9051,
      "toy": 9052,
      "Rh": 9053,
      "pless": 9054,
      "producing": 9055,
      "twist": 9056,
      "opponent": 9057,
      "cker": 9058,
      "lane": 9059,
      "column": 9060,
      "pip": 9061,
      "Baker": 9062,
      "Cer": 9063,
      "agne": 9064,
      "30pm": 9065,
      "pursue": 9066,
      "Pelle": 9067,
      "pical": 9068,
      "Inspe": 9069,
      "aken": 9070,
      "guess": 9071,
      "engagement": 9072,
      "900": 9073,
      "partisan": 9074,
      "Awards": 9075,
      "explan": 9076,
      "felony": 9077,
      "vit": 9078,
      "pez": 9079,
      "dollar": 9080,
      "toxic": 9081,
      "oon": 9082,
      "Djokovic": 9083,
      "asyl": 9084,
      "ahl": 9085,
      "Parker": 9086,
      "dreams": 9087,
      "unacceptable": 9088,
      "shoppers": 9089,
      "ixon": 9090,
      "suburb": 9091,
      "refugees": 9092,
      "Neymar": 9093,
      "relevant": 9094,
      "rand": 9095,
      "swell": 9096,
      "lett": 9097,
      "Unfortunately": 9098,
      "diagnosis": 9099,
      "organised": 9100,
      "Pier": 9101,
      "remembered": 9102,
      "requested": 9103,
      "ultimate": 9104,
      "Bat": 9105,
      "install": 9106,
      "calcul": 9107,
      "suff": 9108,
      "theme": 9109,
      "Nasa": 9110,
      "uct": 9111,
      "urban": 9112,
      "championship": 9113,
      "limits": 9114,
      "bik": 9115,
      "Never": 9116,
      "unconscious": 9117,
      "collabor": 9118,
      "Happy": 9119,
      "sie": 9120,
      "proportion": 9121,
      "swing": 9122,
      "Without": 9123,
      "Memorial": 9124,
      "concrete": 9125,
      "proposals": 9126,
      "athlete": 9127,
      "maintained": 9128,
      "Commonwealth": 9129,
      "defendants": 9130,
      "Wolf": 9131,
      "Bish": 9132,
      "rd": 9133,
      "lia": 9134,
      "nationwide": 9135,
      "frozen": 9136,
      "Corpor": 9137,
      "machines": 9138,
      "Hollande": 9139,
      "Turner": 9140,
      "revenue": 9141,
      "oral": 9142,
      "asylum": 9143,
      "20s": 9144,
      "airports": 9145,
      "diabetes": 9146,
      "82": 9147,
      "Claire": 9148,
      "shake": 9149,
      "accurate": 9150,
      "cannabis": 9151,
      "fts": 9152,
      "soc": 9153,
      "aux": 9154,
      "priest": 9155,
      "dose": 9156,
      "Media": 9157,
      "Lan": 9158,
      "legraph": 9159,
      "ibility": 9160,
      "letting": 9161,
      "fence": 9162,
      "thorough": 9163,
      "trading": 9164,
      "reserved": 9165,
      "Fle": 9166,
      "atican": 9167,
      "SC": 9168,
      "Cristiano": 9169,
      "unexpected": 9170,
      "Shad": 9171,
      "genetic": 9172,
      "Metropolitan": 9173,
      "champ": 9174,
      "angle": 9175,
      "nav": 9176,
      "transl": 9177,
      "Vietnam": 9178,
      "rein": 9179,
      "dele": 9180,
      "Wr": 9181,
      "dent": 9182,
      "anxi": 9183,
      "element": 9184,
      "isolated": 9185,
      "desk": 9186,
      "climb": 9187,
      "Bris": 9188,
      "1960s": 9189,
      "toddler": 9190,
      "UE": 9191,
      "End": 9192,
      "tops": 9193,
      "Capital": 9194,
      "Wemble": 9195,
      "Wembley": 9196,
      "polar": 9197,
      "literally": 9198,
      "Arthur": 9199,
      "Vatican": 9200,
      "loose": 9201,
      "underwent": 9202,
      "GA": 9203,
      "haust": 9204,
      "uer": 9205,
      "campaigns": 9206,
      "iques": 9207,
      "Catherine": 9208,
      "FOR": 9209,
      "architect": 9210,
      "oko": 9211,
      "Price": 9212,
      "slammed": 9213,
      "TA": 9214,
      "dev": 9215,
      "dles": 9216,
      "stressed": 9217,
      "soccer": 9218,
      "gifts": 9219,
      "battled": 9220,
      "osex": 9221,
      "Tan": 9222,
      "Stafford": 9223,
      "Emirates": 9224,
      "Monaco": 9225,
      "ael": 9226,
      "Dream": 9227,
      "boarding": 9228,
      "Perhaps": 9229,
      "chant": 9230,
      "Dale": 9231,
      "porn": 9232,
      "Emergency": 9233,
      "RAF": 9234,
      "destruction": 9235,
      "demonstrators": 9236,
      "Bou": 9237,
      "slim": 9238,
      "swept": 9239,
      "Son": 9240,
      "desert": 9241,
      "aug": 9242,
      "Queensland": 9243,
      "Ti": 9244,
      "implic": 9245,
      "oping": 9246,
      "participants": 9247,
      "anymore": 9248,
      "Kurdish": 9249,
      "Albert": 9250,
      "describing": 9251,
      "vacation": 9252,
      "cable": 9253,
      "tips": 9254,
      "idal": 9255,
      "wanting": 9256,
      "memo": 9257,
      "stopping": 9258,
      "appla": 9259,
      "hearts": 9260,
      "ucing": 9261,
      "PA": 9262,
      "liver": 9263,
      "affects": 9264,
      "antha": 9265,
      "necessarily": 9266,
      "Bark": 9267,
      "winger": 9268,
      "agenda": 9269,
      "obesity": 9270,
      "aftermath": 9271,
      "Techn": 9272,
      "Tsarnaev": 9273,
      "130": 9274,
      "Brus": 9275,
      "mi": 9276,
      "Company": 9277,
      "eter": 9278,
      "replacement": 9279,
      "stershire": 9280,
      "Wiscons": 9281,
      "bleeding": 9282,
      "passport": 9283,
      "pure": 9284,
      "urge": 9285,
      "Boeh": 9286,
      "torial": 9287,
      "anson": 9288,
      "Develo": 9289,
      "arra": 9290,
      "pride": 9291,
      "heroin": 9292,
      "Tower": 9293,
      "delays": 9294,
      "CDC": 9295,
      "stagger": 9296,
      "Ferrari": 9297,
      "visions": 9298,
      "tornado": 9299,
      "cardi": 9300,
      "Wisconsin": 9301,
      "elements": 9302,
      "tub": 9303,
      "asted": 9304,
      "shaped": 9305,
      "ashire": 9306,
      "Environ": 9307,
      "principal": 9308,
      "Hond": 9309,
      "toys": 9310,
      "beloved": 9311,
      "damages": 9312,
      "Sergio": 9313,
      "igent": 9314,
      "Greater": 9315,
      "migration": 9316,
      "Owen": 9317,
      "suing": 9318,
      "poster": 9319,
      "Lancashire": 9320,
      "hoo": 9321,
      "350": 9322,
      "substance": 9323,
      "Hero": 9324,
      "pledged": 9325,
      "Nevada": 9326,
      "Formula": 9327,
      "wives": 9328,
      "cyber": 9329,
      "hostage": 9330,
      "Gay": 9331,
      "resulting": 9332,
      "Islands": 9333,
      "notorious": 9334,
      "remin": 9335,
      "underground": 9336,
      "apologised": 9337,
      "hopeful": 9338,
      "chett": 9339,
      "Support": 9340,
      "Affairs": 9341,
      "strain": 9342,
      "Bey": 9343,
      "fu": 9344,
      "cabin": 9345,
      "vak": 9346,
      "Carib": 9347,
      "kidnapped": 9348,
      "transition": 9349,
      "intimid": 9350,
      "een": 9351,
      "Mitt": 9352,
      "precedented": 9353,
      "rear": 9354,
      "reign": 9355,
      "savings": 9356,
      "Us": 9357,
      "overcome": 9358,
      "Sophie": 9359,
      "aggravated": 9360,
      "porno": 9361,
      "gross": 9362,
      "entrepre": 9363,
      "Carlos": 9364,
      "scrut": 9365,
      "Brooks": 9366,
      "Run": 9367,
      "Anfield": 9368,
      "Lambert": 9369,
      "finance": 9370,
      "boasts": 9371,
      "Stri": 9372,
      "covers": 9373,
      "LS": 9374,
      "Carr": 9375,
      "assessment": 9376,
      "stupid": 9377,
      "eved": 9378,
      "izza": 9379,
      "liquid": 9380,
      "restra": 9381,
      "challenged": 9382,
      "prayers": 9383,
      "schedule": 9384,
      "Sex": 9385,
      "meanwhile": 9386,
      "rena": 9387,
      "thed": 9388,
      "Samantha": 9389,
      "Festival": 9390,
      "liest": 9391,
      "Brady": 9392,
      "Boehner": 9393,
      "impression": 9394,
      "storms": 9395,
      "burns": 9396,
      "Assist": 9397,
      "invasion": 9398,
      "fate": 9399,
      "adjust": 9400,
      "1989": 9401,
      "Game": 9402,
      "coordin": 9403,
      "inth": 9404,
      "sacrif": 9405,
      "Caroline": 9406,
      "Kirk": 9407,
      "islands": 9408,
      "Angela": 9409,
      "slip": 9410,
      "calories": 9411,
      "Sent": 9412,
      "wider": 9413,
      "siblings": 9414,
      "courtroom": 9415,
      "ums": 9416,
      "urging": 9417,
      "revealing": 9418,
      "fixed": 9419,
      "Castle": 9420,
      "aying": 9421,
      "Rud": 9422,
      "Brighton": 9423,
      "scul": 9424,
      "dismiss": 9425,
      "suffers": 9426,
      "Caribbean": 9427,
      "Telegraph": 9428,
      "fiance": 9429,
      "outstanding": 9430,
      "astronaut": 9431,
      "dealt": 9432,
      "borrow": 9433,
      "iller": 9434,
      "graphy": 9435,
      "finishing": 9436,
      "documented": 9437,
      "Science": 9438,
      "avo": 9439,
      "HO": 9440,
      "bold": 9441,
      "sav": 9442,
      "Nicole": 9443,
      "Ak": 9444,
      "Bour": 9445,
      "Persie": 9446,
      "cure": 9447,
      "brahim": 9448,
      "inci": 9449,
      "phr": 9450,
      "ication": 9451,
      "ogan": 9452,
      "Vladimir": 9453,
      "Chair": 9454,
      "handful": 9455,
      "1991": 9456,
      "illo": 9457,
      "troubled": 9458,
      "addy": 9459,
      "watches": 9460,
      "screening": 9461,
      "iders": 9462,
      "ideal": 9463,
      "weekly": 9464,
      "echo": 9465,
      "midnight": 9466,
      "plun": 9467,
      "Quest": 9468,
      "boots": 9469,
      "dresses": 9470,
      "bloody": 9471,
      "smiling": 9472,
      "tourism": 9473,
      "Governor": 9474,
      "Jav": 9475,
      "custom": 9476,
      "unprecedented": 9477,
      "Bart": 9478,
      "exhaust": 9479,
      "Marie": 9480,
      "tan": 9481,
      "tooth": 9482,
      "exploded": 9483,
      "intens": 9484,
      "Fernando": 9485,
      "triggered": 9486,
      "Ener": 9487,
      "caring": 9488,
      "engage": 9489,
      "dew": 9490,
      "Look": 9491,
      "brands": 9492,
      "acare": 9493,
      "Lamp": 9494,
      "recall": 9495,
      "itan": 9496,
      "examined": 9497,
      "Yan": 9498,
      "Please": 9499,
      "tablet": 9500,
      "Dri": 9501,
      "convictions": 9502,
      "ieber": 9503,
      "realize": 9504,
      "Nearly": 9505,
      "intensive": 9506,
      "het": 9507,
[...]
